[CLS]
[PAD]
[SEP]
[UNK]
[MASK]
!
"
#
$
%
&
'
(
)
*
+
,
-
.
/
0
1
2
3
4
5
6
7
8
9
:
;
<
=
>
?
@
[
\
]
^
_
`
a
b
c
d
e
f
g
h
i
j
k
l
m
n
o
p
q
r
s
t
u
v
w
x
y
z
{
|
}
¡
¢
£
¤
¥
¦
§
¨
©
ª
«
¬
®
¯
°
±
²
³
´
¶
·
¸
¹
º
»
¼
½
¿
ß
ð
œ
ˆ
˜
а
е
и
о
–
—
‘
’
‚
“
”
„
‡
•
…
‰
›
€
™
→
##t
##a
##p
##h
##y
##l
##o
##c
##q
##u
##e
##n
##i
##d
##r
##m
##g
##s
##z
##¨
##k
##b
##j
##w
##f
##4
##9
##7
##3
##6
##2
##1
##8
##0
##v
##5
##x
##ð
##ª
##¬
##´
##¼
##ß
##°
##±
##а
##о
##¯
##€
##˜
##ˆ
##и
##¢
##²
##е
##³
##œ
##®
##¸
##½
##¹
##¦
##©
##£
##¤
##º
##™
##¥
##er
##en
##ch
##ei
##es
##an
##un
##at
##et
##ll
##ss
de
an
##in
##em
##ir
##on
##el
##ar
en
##ech
##ou
##is
##it
##cht
##eg
der
##eier
##ann
##ro
##st
##uer
##al
den
##ent
eng
##ra
vun
dei
##ach
##ie
ass
##eng
##us
et
da
op
##or
##um
##ell
sch
##inn
st
##sch
##wer
##oun
##esch
##ier
##om
ge
am
##ol
fir
net
##ut
##der
##ck
##nt
dat
mat
och
hu
ma
##ung
ze
##ur
ver
##ill
##ot
##ioun
##ee
##la
##lech
##kt
un
em
wei
##re
huet
##eiert
##and
##ff
##ett
##eit
##est
##ess
jo
##ge
do
##pp
sech
##id
vum
##oll
##escht
##am
een
all
##de
##ri
##ft
zu
nach
bei
ech
al
##ion
##uss
##ert
##all
mei
##etz
war
##unn
##icht
##il
er
aus
##wwer
sp
##onn
ginn
la
##omm
gr
##oss
##den
##ang
dem
##ten
##ien
se
##mer
##ik
##eieren
##ter
wa
20
ges
##iv
pro
vir
sinn
##enn
##lo
##rei
duer
##ich
##ait
be
##end
eis
des
##anz
in
iwwer
##eet
##echt
##art
##eb
##elt
well
no
deen
##ger
ha
hat
ch
dass
um
dir
##scht
hei
re
si
gei
oder
##ue
deem
##atioun
joer
kon
##ul
engem
zw
##te
##wen
##le
gett
##ic
##ap
##iss
emmer
vu
awer
##sp
##our
seng
on
fr
##im
##gen
hunn
##men
##ud
##elen
##ein
##oen
es
gou
ee
als
mir
sa
gem
leit
##een
dann
##ekt
wann
sou
##ner
soll
datt
##ant
wat
vill
pl
##ist
##ad
gesch
kann
##ber
pa
gouf
esou
##os
##erm
ganz
hir
##ort
##ennt
##ha
##ooss
ba
muss
##ig
##lei
ar
##00
ka
nei
eu
lu
wou
mer
enger
##ank
##ba
##uch
aner
letz
##ebuer
##og
##bl
at
##rop
pr
##da
201
##ing
kr
##ers
##aft
##ce
wier
letzebuer
##ouss
komm
##ation
19
##eck
fa
##ust
gew
int
##itt
##deg
fot
ein
le
du
##no
pol
##iz
br
##ement
##wei
as
##ef
sin
duerch
##oossen
ex
##orm
con
hun
##ens
th
hien
##ek
##achen
gef
id
##ab
mam
##op
##wa
enner
auss
##ment
##atz
di
##rot
ent
gen
##qu
mar
of
daat
##ans
plus
##apt
##och
##enz
grouss
##utt
sel
fall
fl
##au
su
att
zait
kl
dee
na
##ond
##ount
min
elo
gin
ab
##ern
best
##anneg
ne
keng
##eem
##ag
aut
##me
##anner
nem
eischt
##eur
##engen
##ermoossen
gel
##deem
##ine
##schaft
##ischt
par
kennt
##hr
##ia
##fen
##eint
lei
sta
pla
daermoossen
zou
lo
##ru
geet
##ip
##eren
##ass
geh
qu
reg
##ed
attach
##alen
mo
attachment
##ire
die
geint
##iteit
##ichteg
##ges
mee
fra
duerno
##se
##ellen
ob
##alt
res
kenn
##ct
bis
##ver
schw
tra
au
##reck
land
trot
##uck
ga
##fir
bess
trotz
##omp
##engt
##eescht
virun
miss
comm
ament
200
lie
konnt
zum
ra
lescht
nemmen
##egen
##aach
dr
##chen
gla
dom
ber
direkt
##if
just
##ale
so
##nd
falls
##ppes
keint
haut
get
alles
gud
keen
##erd
##io
##annt
##iicht
pra
scha
##ies
gra
ew
##ze
##uni
##ungen
eppes
##uel
10
##keet
##heet
geb
##ite
##annen
##iounen
nat
era
mass
polit
letzebuerg
##as
einf
##land
im
europ
##du
##emm
letzebuerger
##unkt
spill
##esche
selwer
##erie
hatt
##ister
##ident
weider
part
##hl
##sa
##ult
einfach
##ken
geif
##ffen
##ensch
##idder
##uernd
##bai
##ong
versch
trotzdeem
##min
el
pers
18
##eschen
##iel
und
##eemol
tr
beim
##essen
##sen
##leck
zweemol
lux
hier
har
##cc
##ka
sollt
fotog
inter
staat
the
mol
##tr
kanner
##reien
##angen
elei
waren
glaich
##ci
kommen
ausser
##oul
mett
mech
##elle
##ne
##enter
ger
gi
##ben
##que
##idd
eraus
##per
bl
##emb
##age
##elleg
bra
##gel
dar
dait
##form
##mount
##fa
erem
##zi
mensch
iech
masseg
keier
europa
##arb
richteg
##sst
fuer
uge
enn
##we
mill
##ob
##ler
ons
##out
gest
##ont
ad
capt
##ard
##aren
bes
##che
peng
gemeng
mus
caption
##lecht
les
gemaach
ph
akt
sie
also
maachen
##ice
pres
waat
sait
dunn
##pr
naischt
##iseiert
hie
laang
ouni
kreien
##zen
##ungs
we
kat
or
zes
##ott
fin
##ma
##ons
##ubl
##ember
zesum
##ok
##riwwer
kee
man
##ellt
co
##pt
##idden
welt
##komm
##ents
frei
##na
daitsch
bel
bet
##glech
kritt
##ativ
##onnen
woch
kennen
##dauernd
##raf
wir
scho
dofir
##ord
##kl
##etzen
iwwert
##des
##gend
##ib
stanneg
##fer
andauernd
##ste
##sten
##amp
verb
nees
woll
##blem
##uecht
12
##ance
po
av
##atiounen
schl
schonn
emol
besser
wein
dag
politik
blei
sam
dro
##tra
##eiss
ev
fro
alt
##ser
euro
##ater
##pl
puer
15
##spill
iwer
##allt
##gesch
liewen
luxemb
##jet
jon
##aus
resp
##zeg
gutt
##sk
##ieder
##iell
verst
eriwwer
meng
##do
##gew
##ele
bestanneg
##anter
##itioun
11
ben
wee
##akt
##af
plaz
ho
cl
##upp
fil
sonn
komp
problem
foto
misst
hand
##uert
ewech
##ak
regier
gesetz
##ain
##atis
app
##escher
gudd
##anc
gesp
mann
##mm
##att
sengem
chr
##od
fannen
dra
je
##fft
ant
##ucht
dest
##ure
##goen
##eed
##eter
pri
grad
ko
verl
##els
bez
secher
000
nation
##hn
30
##ucken
senger
##ffer
sy
gar
auer
tescht
##cher
kla
kleng
##fl
sai
nom
fest
ja
##etzt
##wend
##ise
besch
tour
wor
##br
me
dech
schoul
nie
##egt
##ick
##hin
and
##geh
##echent
schlecht
##tl
##sv
##alerie
car
##weis
sain
comments
##of
##ierlech
dep
##anger
##gan
mussen
##gem
##eien
##ke
meiglech
stro
off
##egor
##ichen
##uelen
##be
##olut
##ielt
##ette
zer
goufen
##entlech
steet
gratis
dis
##ker
##echen
dec
##onnesch
fam
##echn
ged
##eiere
ann
rei
##ipp
abs
##iir
mecht
##stell
##ww
dach
##ouer
##oum
rtl
verg
gesinn
##wat
soss
##ster
waert
ganzen
frans
heescht
mell
##fall
regierung
luxembour
allem
##haff
dobai
fotograf
dier
rem
paischt
bek
##ique
schrei
str
alb
voll
don
##innen
intern
##ueren
##pro
##gest
##kla
##ex
vers
##ph
13
##eschter
##ange
ser
##ive
pat
paischtmount
##ous
##ied
bier
##eler
manner
##eld
ewei
##uren
hutt
##aner
##enner
##bar
fon
kont
schein
kategor
##aire
soen
##zent
##ction
deenen
##ug
##ege
##ide
16
schn
##arbecht
him
uf
ier
##atzen
steck
##yer
##erik
eben
mom
##gr
##ull
kuer
##esse
drop
fier
##stand
rel
president
14
ro
##pos
##uen
stra
17
##gra
num
inform
prof
##reg
publ
##dag
##ve
wahr
bo
##emmt
kategorie
##a¨
csv
##ub
go
##isten
##echer
beg
##einlech
police
kar
geschicht
##punkt
rou
##minister
##utz
##uell
pour
zweet
##her
##rie
fe
mengen
sport
##aine
zenter
gener
##oto
##ren
##lee
beispill
##eisch
##wwen
dor
mon
##mus
##ols
##klech
deene
zwee
deel
mun
per
##ued
musst
album
##di
her
art
ju
##its
acc
rad
desem
kuerz
eff
bed
equ
zwar
##ron
aff
##vill
25
von
moment
zur
natierlech
##ektiv
##ho
##trem
##ian
ter
##ins
##illen
##ec
is
amerik
for
produ
domat
schwa
deeg
100
goen
##onne
##ga
##fr
form
##guer
frank
weil
##ball
bescht
##iwwer
kier
##ild
wessen
hann
finanz
##aliteit
meescht
organ
##stem
deser
vis
##satz
franseisch
matt
extrem
to
##jo
##isen
krut
##anken
##zial
##rooch
brauch
##ellef
praz
minister
##haapt
dese
he
esch
huelen
zanter
est
##iller
sur
##emp
verd
spe
schon
punkt
luxembourg
absolut
##ierk
##echter
inv
kra
##ition
##ry
##fin
##illt
##itu
owend
verschidden
fannt
##roen
hire
mais
##oe
grand
heich
das
##ys
##ateur
film
gesot
doen
##amm
50
lait
##schen
seet
##ient
ewell
merci
wuel
haapt
ennert
interess
famill
doh
flouer
haten
musek
it
wichteg
##ppen
fotogalerie
persoun
##oung
wunn
##kr
fotoen
norm
€™
natur
##iess
##otz
wollt
conc
##oire
##ueden
##lich
##well
##mol
wellen
marei
kri
##res
aarbecht
##ark
guer
##deems
##weck
ind
bal
mein
une
jor
##roll
prem
##lechen
##ix
##aten
##eil
00
##uff
##lack
neie
eischte
auf
2014
minut
##abel
##gef
stud
##uckt
que
##va
##aler
zousatz
##olog
politiker
domaine
reng
dov
##riwwen
pass
199
##bier
menschen
##eierung
bew
##ht
daer
ta
##pa
usa
##enk
mit
dou
##gerechent
##kucken
neien
##ux
stad
aneren
##fe
lies
##gn
##ipe
##egkeet
hall
##ansdo
##huelen
selw
##raich
photo
##ielen
##dr
pos
koum
zousatzlech
meint
hiren
ste
leschte
samsch
##reft
##ktioun
##itiv
strooss
cont
##unner
bun
##ute
##lin
eg
hirem
lanner
zesummen
spa
##alis
ca
##erdeng
grond
ed
kenne
rep
med
##ats
geholl
##oot
##imm
munch
sot
##onder
21
machen
##rep
prob
##ets
##air
ausserst
zwou
nidder
viru
##tschaft
eischter
sollen
wie
ag
not
klo
tre
##zait
##reet
##iew
##eeen
wien
fort
priv
24
##etten
##yp
##line
auto
##cks
partei
char
ufank
aerd
##deel
projet
premier
##hei
##asser
##ennen
##ana
##sta
##ison
##ald
cut
##lung
##idde
##ieren
##zou
zereck
tel
##halt
##ettel
vla
##hlen
##stellung
##cker
##ema
liz
gesait
##enen
2001
##sm
cla
##duer
recht
kompl
##pla
##ina
sc
ren
##eger
gro
##erz
kand
##app
ausgew
22
##rain
krit
ausgerechent
gebra
##he
heiansdo
##ache
schaffen
inf
inst
##kun
dans
##cken
gein
dur
nemme
wech
ins
##hand
##onner
internation
23
##aa
velleg
ir
grousse
us
erf
lizenz
bundes
anere
haus
nett
##issioun
##teren
198
dan
##istesch
greng
##urg
member
##zel
koll
##uerg
fotografie
cor
aud
##izeiert
situ
daitschland
li
blo
wieder
zeit
verk
##one
##mes
##get
##sport
##ssen
##int
greiss
##ues
##alsch
##yc
auteur
##az
##arden
cent
##ict
##ven
##lie
bekannt
##osst
##ellschaft
gek
photogen
##ckt
sal
##bst
setzen
besonnesch
comp
praziseiert
##kunft
serie
##lecher
online
lang
ausgewielt
##are
sprooch
weilt
##vo
bleift
##ore
##echten
mad
##hen
##elb
disk
mier
geld
##egung
faul
##haus
hinnen
##mp
##schten
layer
zaitpunkt
##uteiert
40
##afft
##ester
buch
arb
##ium
##mei
##iter
cou
sollten
aer
hirer
brei
hatten
groussen
cons
nawell
##pass
##rof
sozial
weinst
sich
lee
##wee
desen
##ate
droits
jidder
##¼r
zukunft
cham
##sh
ist
##20
##wt
fla
##erten
ou
##old
vide
##isch
ablack
##sb
##welt
vel
match
ec
wur
steier
ni
wierklech
flott
##ioune
##afen
##teur
munchmol
national
bierger
##arm
exp
##wert
##ultur
##und
verw
deier
##bel
eegen
##gang
##ivers
2013
strapp
leider
amerikan
##up
loossen
##baut
ur
##ast
##vir
frai
hellef
aussch
##ais
##gestallt
dies
ronn
fonnt
##ublik
det
€˜
##nen
##geb
iwwerhaapt
schnei
##ools
sein
##woch
bi
chrescht
2015
end
##vern
deng
wieren
com
zreck
26
kontroll
##ankt
waiss
##halen
heem
##ument
nam
gesond
##ko
2016
ennerst
hin
anner
##recht
##rat
mot
kloer
roll
fueren
##eischt
top
ac
problemer
bar
##uscht
jour
met
197
##emol
##iere
tran
gu
virum
##ginn
##egr
radio
alle
richt
##gramm
##alien
entre
##erdengs
##eff
stellen
milliounen
##icher
allerdengs
eischten
entsch
##ile
genuch
nicht
jul
donnesch
ewechgoen
schweier
##erg
gewi
gaangen
ronder
ap
schluss
mount
##rig
##dert
mult
gouvern
anescht
sec
cour
##ummer
ennersch
wer
egal
ronderem
prin
ri
##uerger
seier
##vent
but
genau
nor
techn
weess
##co
bedeit
wahrend
alter
pe
##hal
aaner
##kter
geifen
suen
organis
meen
result
##oten
##iker
wo
##enger
nachst
verka
jonk
mettwoch
##unge
zesumme
riicht
sol
##lag
holl
rec
ris
##angt
spiller
27
##onom
##yn
##opp
##ind
eisen
##geholl
tit
anerem
##lament
##erte
reck
##sy
##wenn
te
28
##aux
##ionn
dauernd
stat
##ial
lass
##arz
##ieden
tab
##ieg
##raff
dozou
ele
##orn
firwat
geschitt
klass
##minist
equipe
tesch
##achlech
geing
##loss
spillen
il
spr
elteren
af
##wes
##ementer
ol
pre
waasser
belsch
gouvernement
emp
pet
gesellschaft
##kommen
##rach
opge
video
##anen
leiwer
##ame
##ja
qui
##eis
post
##watzen
ke
gespillt
##meeschter
##ude
tri
##eller
sonndeg
##dem
gascht
moien
densch
##je
eiser
##waert
##esser
wees
##hm
www
onb
leschten
zwein
offiz
ong
##usch
gefuer
##21
port
##umm
##str
numm
##ona
##olit
feier
##mat
gri
bou
##amb
ett
##anten
respekt
##atur
genee
sk
##napp
aktiv
nee
60
oft
rest
2012
##rukt
##deenen
wupp
deieren
ais
mich
##leche
ðy
chamber
bruecht
staats
spillt
unt
kn
benotz
souw
komment
plang
wirtschaft
vict
defin
frankraich
aller
pop
prozent
##vis
##acht
ganzt
##ois
ue
##eneen
##arf
##50
general
log
bera
verluer
deck
drai
gewiescht
eise
allgem
gesin
new
##ande
##a¨re
gleck
partie
##los
hanner
##deren
dam
196
cr
bestemmt
##eim
kal
klenge
##ques
##onnert
aan
eemol
erof
denen
halt
##ante
wochen
present
freideg
hannert
##gesinn
kap
heihin
privat
komplett
aktuell
drun
senn
dow
##schung
bild
sen
leeft
rue
brengt
##ail
dacks
ret
kil
pens
prais
##emmer
mettel
super
propos
leg
musse
##pe
##iteiert
##isser
##ress
##ikatioun
entweck
aug
##enzen
tex
##eckt
vo
##hol
christ
souguer
fraen
##akanz
saachen
bu
29
zielen
ganze
audio
saison
glo
bleiwen
meter
##ity
ereischt
decid
bessen
mil
jan
##stro
##rupp
haat
cam
ep
kascht
typ
##deelt
erw
sanger
alleg
geheiert
2011
pas
schla
ausschwatzen
##entr
meenung
70
nieft
##ossen
selwecht
thema
##etzung
##enten
nummer
soci
geschriwwen
##sam
verschidde
km
##inner
wait
konnten
situatioun
offiziell
kom
gefall
bor
##91
##schaften
##pres
chef
##onal
bud
stinn
##zip
##oriteit
keinten
ls
ware
invest
##ischen
##republik
parlament
bank
ausdeenen
centre
##zer
multip
del
schm
krank
personn
##ouert
eenzeg
ce
italien
gellen
kierch
##iert
##acher
rob
##ote
##bei
serv
liicht
##lanner
telef
nord
decis
week
arch
##ome
##zess
bless
wanter
col
durch
vlaicht
interv
klengen
son
##ongen
##mann
##ussen
grupp
sm
ville
journ
eig
##gesat
lsap
bued
minutten
bro
qual
alleguer
samschdeg
joeren
drei
bundesrepublik
kapp
schei
anerer
##ismus
##ia¨
ang
gott
##adder
nodeems
juni
##ete
uk
stoe
##iser
##werk
lin
user
erwa
##ours
schul
##wier
##itar
ak
jugend
##vers
normal
##ations
##olleg
opt
##obil
##30
##schter
##ack
kre
80
perseinlech
kultur
##sequ
brengen
wi
##iveau
neier
schons
##uerwen
sh
gelooss
##ige
##yl
##iden
gesondheet
##scheinlech
phil
##saz
##kel
##ac
moder
##rag
schengt
09
##waat
star
depart
35
secherheet
##duerch
rev
##eiren
fennt
##orf
##aart
geschaft
kuckt
gez
endlech
auch
multipel
club
verf
neit
##anne
geschwat
##ara
##ente
main
erkl
terrain
tele
bas
oof
wiel
##anscht
autom
jean
##emin
event
quest
speit
system
eine
respons
##uar
engag
iww
ongleck
esouguer
kucken
okt
##reff
##ppelen
##irk
fond
mess
##uf
train
bon
succ
##ometer
##loen
nov
##igen
##ommen
wahl
missten
liesen
bau
##era
lok
bus
mannst
geschafft
stoung
imp
##rich
rapp
##ille
stonnen
##schein
##ye
franc
##ino
liewe
tats
nu
##iste
##stellen
##holl
chute
##geint
##arat
##schn
##ret
##ions
namlech
positiv
##klaert
froen
joren
letzebuergesch
dp
01
coll
##atioune
setzt
##eiten
nit
##reich
etapp
dovun
weekend
##ole
##aur
gudden
##zielt
probeiert
##ov
mengt
ens
chance
gestallt
ausland
fotografieg
##rik
##ichten
stellt
sept
##off
champ
31
leescht
doheem
##gab
##man
kinn
mes
##ival
extra
##eid
##recken
##regens
##ect
##ober
mal
##ads
eisem
ref
##uelt
##ennert
gepl
deputeiert
##oo
500
stand
##nis
punkten
##ilt
comment
##sser
##onc
schreft
45
##itz
ek
transport
hal
falsch
##reckt
demok
##eierten
domadder
##ascht
##iliteit
##plaz
administ
ball
niveau
mod
anal
are
2017
ausge
vakanz
sek
site
dinn
ween
saach
iergend
vor
press
biller
##itut
kons
##xt
##ump
##iger
##dre
park
real
mor
gewen
schwatz
will
geschwenn
allgemeng
##ustr
##bierger
##vel
##ruecht
ennerwee
##ieft
##ign
deb
perm
tot
entrepr
win
hoff
prot
programm
gebitt
08
##lechkeet
mart
##ari
knapp
weineg
##isou
senge
eigentlech
spez
vollek
##press
gl
ale
nachste
ausst
##uleieren
oktober
garen
wal
##ingen
onbed
iwert
##ander
west
##dition
##ital
fac
gol
informatiounen
##mo
muer
rom
90
##aut
betri
##inne
mull
eenzel
wand
##iti
papp
##eign
##bierg
buedem
tram
##19
##fahr
##baren
lenk
2010
ken
aw
erop
sud
leien
fol
dez
erla
konsequ
fo
milli
klim
rock
geriicht
##iteieren
##zes
##ane
hot
##berg
##oren
ern
far
##ow
solle
interessant
luucht
avec
heieren
##zef
wart
##jen
##einst
freier
richtung
band
wurscht
immen
luc
titel
##statioun
##ouv
juli
##ew
deemno
bezuelen
##ilis
administr
sougen
respektiv
eleng
engl
wennt
millen
##enne
##uet
gestuerwen
detail
beschten
fa¼r
zentr
gebuer
telefon
gebrauch
international
minist
geschter
schwier
##euren
decideiert
etc
fu
brit
##positioun
energ
neist
##th
2018
ugefa
weist
hou
beraich
meindeg
##ings
dezember
##strooss
03
##roch
##erdeg
fre
##bre
gefrot
restaur
##ps
iwwereg
kilometer
gudde
gut
frend
nuecht
zim
treppelen
##elm
test
##spr
spads
riichter
reform
##wort
kam
##stad
gemein
max
feiert
ell
politesch
arg
2009
##quet
kou
antik
affar
dono
##son
vol
tur
##serv
sing
##mel
##les
asw
jidd
##oph
##stanneg
zirk
fouss
##eche
##bo
pomp
journal
wellt
prinzip
aux
demokrat
##ath
mamm
glob
donneschdeg
besse
autoen
iwwersch
domm
##rafie
def
vertr
##emmen
ofger
##froen
##ative
##ffe
rout
##laich
##steller
##itiounen
##ah
fut
##annert
buerger
##fuer
##weil
summer
vous
madame
missen
##feld
jiddereen
##millen
entst
glee
##ene
aktu
##ena
foot
gebuert
stonn
my
gewonnen
##wierk
iwwregens
mont
##bau
kennten
gewerk
september
imm
##uter
questioun
05
blesseiert
liter
##drun
bettel
##emper
wechgoen
lig
russ
##wait
##olitik
lidd
##wuel
##riechen
##zuel
##aat
##ella
trava
krich
spadseieren
victoire
##ppt
##uergt
count
kandid
patron
##amten
##reiwen
##esen
verh
##sg
ugeet
immens
herr
##ersch
selbst
doduerch
kader
cha
menger
##enzait
##mett
erklaert
kris
##ssel
effentlech
##nes
##enneren
vit
##by
qualif
neideg
owes
laanscht
clo
subst
##tt
sho
mond
##dez
06
##fra
duerstellung
##itekt
refer
interview
denschdeg
##ley
verain
leisst
##kret
beschaft
schuler
lou
##onnt
paul
januar
public
##ichter
##ela
##zept
amb
rot
budget
sichen
profess
##annten
concert
fiir
won
dierft
minutt
gewielt
tabell
##ii
##ku
wahrscheinlech
elekt
##hren
##ants
##weg
artik
##dro
hoffen
nout
fonction
denken
schwaarz
##ere
##atiouns
grei
04
fuerschung
##duecht
stied
abr
##ric
##vid
goufe
02
kan
onbedengt
##sche
##mar
##cel
07
architekt
##oir
adr
ahn
chau
##leit
kor
val
raus
##voll
haff
funkt
##ebo
##40
stelle
ich
age
zweete
doweinst
erk
organiseiert
ewechkucken
zimlech
##ppel
gewess
##oc
##eef
sub
##uergen
nic
mail
##agen
hues
##lecherweis
zesumm
setz
sidd
neg
ut
##rad
gemengt
gesat
genannt
gemach
opp
orig
beschte
nobai
##hang
zimm
##a¼
bil
mi
mark
tom
maache
##nach
##amt
mai
##ippen
##annte
hist
pal
hierscht
##scher
##ifen
zimmlech
wahlen
ast
fuerbaren
karel
gebaut
##ica
##emen
wunneng
welle
hell
poliz
bomm
maj
grenz
dru
greissten
##ai
##iddel
stier
tatsachlech
ganzer
versp
##ingt
fle
fotografiegrafie
veier
corona
bai
##bleck
##eedung
##anche
emplo
cro
bezuelt
lidder
velo
##vert
ros
##urs
##gaangen
sonnden
##eten
client
claude
fel
ku
popul
##ende
ennersaz
fc
ok
gellt
country
hate
gare
tim
ug
wieler
haapts
report
##ound
##antwort
evident
schreftsteller
diskuss
kompet
gb
werden
oper
schneider
##etter
##45
##ems
trotzdem
persounen
##verb
commun
emot
wonner
wechkucken
##eideg
##cl
##hellef
freet
ers
##iff
spuen
nationale
##eierte
##vun
##ling
32
##10
doriwwer
##onie
##itter
wol
ofgerennt
arm
36
france
hit
total
gebuerts
2008
prop
##del
##usp
##ez
hel
##ors
villen
duerf
virdrun
##passt
eventuell
fout
##egal
regioun
speziell
##issen
luxembourge
relativ
meiglechkeet
wuert
dess
##zeb
gemengen
##inger
van
dengscht
daag
##ror
travail
cat
haart
europaesch
##wel
##joer
schreift
text
##enden
gefallt
##ecken
frou
##drei
kir
##eierlech
bleck
##iten
jong
uewen
halen
fri
act
web
fern
klengt
gewisen
alex
fouteieren
fait
##denken
dim
##zu
gesoot
##zed
##galerie
flei
seit
33
psy
##15
derbai
##enster
fiert
zoustand
antwert
##bruecht
wollek
##anzen
you
andre
duch
bewosst
sand
kuck
##wieder
gaang
prozess
55
faar
##eill
schwatzen
benotzer
camp
san
definitiv
cyc
hi
##deng
jun
gep
##zeiert
kontakt
fab
##nung
wel
enseign
goung
##arts
gekuckt
##000
beha
zuel
##reiert
por
virus
mob
loft
##dest
##ius
futur
feieren
konst
personal
buergermeeschter
weis
eenz
origin
##iver
usergalerie
freiden
##gemaach
##amen
john
kommun
##firm
integr
energie
spei
hiert
plan
jur
ide
neischt
##47
##ider
##av
waerten
parais
pras
##eeden
bass
onglecklecherweis
entde
dran
dorop
##ife
##ight
inde
##gl
plazen
verkeier
unter
##ineiert
wirklech
##spro
pil
schlemm
zuch
staark
arbecht
##bert
##atesch
schonns
48
sujet
gre
vi
gitt
kommissioun
195
fun
bla
##46
alko
verla
august
ried
##ogra
villa
##fro
##sc
##gesp
borscht
##brengen
##go
grenn
##grond
brauchen
psych
##zek
spetzt
##bild
verz
verlo
donner
stemm
trump
zirkuleieren
doud
##weiler
##ias
hatte
breissel
bessi
parteien
kommentar
occ
angel
sup
aa
eran
accident
##ªt
##lach
##25
prakt
asaz
lim
##iers
edu
kontra
bedeitend
##spla
internet
krei
aerde
weisen
theater
schreiwen
jonke
##erv
##auscht
mos
##bt
geht
uert
alkohol
##ages
##13
##abl
duerfir
##text
november
aerdebierger
verantwort
resultater
apparat
kamp
##pra
##so
substant
sim
##ator
dierf
reag
dig
##ites
obwuel
diddel
geduecht
##barkeet
##emer
pan
feb
schwatzt
nachsten
##haft
maerz
direktioun
luxemburg
##cept
rapport
##ustrie
##iesen
giff
front
hum
stoen
samschden
##part
uni
##use
##eee
divers
sozi
schleck
##oci
##enken
sekonnen
enorm
schaarf
emwelt
leis
alleng
festival
##rel
garant
fur
hol
kost
gebuertsdag
##enge
leieren
erlie
##ropos
mel
beieneen
pompj
breck
wird
woufir
gamb
a¼
ill
bicher
##umenter
gebraucht
##schent
schafft
hieren
##iques
millioune
prazis
oh
##eschten
bierg
##iewen
effektiv
equip
##arte
oppositioun
deemools
cap
liewens
febru
haerz
##buch
##endum
abrell
##eisseg
wollten
eist
##verstand
schelleg
##agne
##arbechter
iwwerra
##droen
reportage
flucht
red
##99
##elz
##airen
schreiwer
schnell
vlait
februar
##23
##iteiten
econom
37
##ia¨re
hallef
##dref
##27
faerdeg
sind
##riere
zevill
mengem
##ith
zeien
geor
conseil
quart
lues
##80
dovunner
minus
##vin
##urger
##maachen
##onen
##otzen
##ebook
leier
##setzen
##rauch
2007
trans
football
weini
raum
##utsch
ont
##ym
kierper
verschiddene
resultat
temper
##ief
##tz
jiddwer
##erk
reakt
##wierker
##dd
zefr
##han
platz
weder
saint
autob
spuer
gemeet
patient
##eminister
nim
##eh
moins
lieser
57
initi
##ologie
moy
##¨s
usch
architektur
frana
erlaab
##ike
aal
doss
vier
2020
masch
aber
##issement
##wand
autor
referendum
intress
bre
##po
##val
zweeten
kur
medien
##ega
milliarden
##run
klima
##voir
##ks
geigend
nop
vert
eier
konscht
##rice
##iken
##iessen
anschein
vertra
hen
facebook
2006
aarbechts
wutz
maneier
##ca
frenn
bens
belleg
34
univers
##sel
arem
substantiv
mag
rescht
kontext
##arten
##eicht
ru
ident
##ourg
suergen
cas
erfolleg
##irekt
blechen
bay
##gner
meed
single
verleiert
apropos
zil
ham
fluch
gesicht
dokter
nun
schlo
filmer
besteet
bli
##passen
66
anscheinend
2000
amerikanesche
47
museker
sont
schued
erre
air
##oden
passt
dist
2019
##spiller
prom
riets
histor
jos
gambia
zwei
fakt
##apten
iwwerdeems
56
schwiereg
decisioun
##deeg
kol
sex
viel
kaart
accord
allen
beruff
geigen
hor
##able
##17
daitlech
##pers
mand
daitschen
laf
gefill
bem
premierminister
repres
fer
##ey
komme
conge
##olutioun
presenteiert
daerf
##raum
65
cre
rechn
##leeen
souwisou
##wo
tro
##¼n
iwwerze
##alitioun
##rage
rap
fuss
awunner
himmel
##deelung
affer
firma
woren
##eist
daitsche
##eeer
jeun
service
##ader
##df
##arch
annonc
start
traur
##18
beid
aen
sproochen
dohin
gewuer
49
spezial
ofgesch
wh
##stra
##zeechent
men
riichteraus
zei
famil
const
mehr
ly
flot
ofsch
marc
##buerger
term
##honnert
gegr
##zesch
militar
geheim
##schoul
##stens
hech
38
halsch
dammen
institut
##kur
##gar
##rieden
doll
300
educ
##erweis
##haalen
##48
supp
##26
weineger
##usse
##ork
##igr
##za
##wn
erzielt
##eme
berlin
lib
konkret
andy
aaneren
auslanner
##statt
##ama
##gress
butte
minutte
mis
emotiounen
sto
##ibel
##28
##49
##ala
wes
gekla
din
##sstad
a¼ber
##iouns
wensch
##ves
##fest
weivill
##orter
angscht
pot
stater
date
##ferenz
##alter
kraiz
publik
gewenner
drock
##esp
wenn
##35
haren
##ssch
##rieben
virstellung
pris
ul
##37
mu
teschent
sti
##16
linn
jac
ersch
##aer
##ymp
can
##ora
##izeieren
eent
##anton
##lingen
tout
entsp
##wir
39
weltwait
lyc
##rett
hotel
58
place
##gefouert
freiere
represent
##°c
schausp
temp
bart
verwalt
robert
droit
##ische
affek
scheff
##ften
##ograph
##udder
##wwe
sei
noch
nur
##maart
##ruktur
hellefen
verbr
ettelb
kostbarkeet
plaatz
##itat
justiz
nol
stremp
##aires
##sse
tou
duc
annert
stellewaert
driwwer
prep
enqu
cal
gewennt
##unnen
##ces
irgend
##rom
€¦
out
sengen
betraff
engagement
behaapten
recher
zweck
publizeiert
exakt
nimools
##zeit
##virus
opf
fussball
##ios
kinnek
artikel
##hi
rich
sil
rall
tradition
spetz
##zog
tal
##eine
sa¼
back
partic
metteg
link
sens
europe
grousser
donnerwieder
##iet
strei
##musek
detailer
austr
##kon
stroum
##riech
mussten
gall
goal
maxim
ausges
objet
geife
sym
##ament
##ila
##ague
verkaf
bleiwt
##ula
interesseiert
spann
benotzt
##ganger
##isse
kin
##zentr
index
england
haalen
doba
fig
heicht
##zest
life
dern
##a¨s
##eissen
muller
samm
stiedt
geg
bask
bat
bett
team
desch
dorenner
hond
deif
gespreich
zoustanneg
mindest
geplangt
ukomm
kenscht
conne
franseische
pap
##auen
##iko
##zt
course
##ativen
##har
pier
einer
succes
grou
##mmen
##uleiert
fav
klin
##geriicht
##sstadium
city
##gin
matge
wu
ugefaangen
##29
weilten
##iment
##urt
stell
expl
banken
jap
##zei
##ielle
wierk
donn
maan
koalitioun
futt
##anke
##¼cht
verdengt
konnte
restaurant
schlass
gewosst
patri
schold
59
breif
##kra
behand
ufanksstadium
motiv
75
##zw
franz
##lement
##gank
musik
##igel
leif
moies
motor
wert
##ebuerg
terror
landstrooss
portug
sw
##weisen
gefa
iddi
kruten
##einen
##atik
kengem
##spart
##36
##endlech
musel
##ektioun
geschrieben
china
46
htt
versioun
wessenschaft
avis
hinne
##ade
kaer
##kennt
juncker
##dy
helle
zaiten
partner
prei
gir
##hre
ans
dollar
##hmen
appart
utilis
##weder
##elborn
verschw
gefeierlech
waar
lokal
societ
non
leschter
show
##ªte
vermes
coronavirus
associ
lauscht
##ris
##krich
schauspiller
##ham
##oper
obj
halschent
44
ersat
##leng
olymp
lascht
up
reen
bayern
##feier
sign
nous
##klus
petz
commentaire
bill
prepar
gepa
##gelt
##drock
bausch
minim
meinden
verbess
ander
asp
##gt
##engem
##leissen
vin
asselborn
##rol
jonken
##lichen
einen
##aliseieren
fankt
##ateuren
##lescht
cad
##bes
gefouert
##uten
##uewen
was
##rit
##afe
entweder
lenks
##richt
gehat
##asi
trainer
gefor
demokratie
liv
automobil
allerm
immobil
erlaabt
##ioneiert
dohinner
rass
erfahr
opm
67
iessen
##sminister
saiten
spaass
matcher
stemmt
##keit
baal
basket
chauff
##eurs
##11
villaicht
parquet
##kommes
job
42
##ly
ennen
erennert
qualiteit
wen
##geet
##kugel
assur
amerikaner
marche
solid
##ini
eens
43
##meiglech
misse
arr
widder
gottes
meisch
departement
##schutz
risk
gewerkschaft
##unique
schwaiz
##heit
bommel
##owend
deiff
lanc
##innt
##wirtschaft
responsabel
insel
jura
diddeleng
sangerin
geschoss
##wann
schlech
##ueder
donneschden
hy
##ancen
tax
##iane
##klar
ausgesch
cd
redu
ouscht
##riwwe
##riet
##ble
looss
commer
##eben
##ost
schwaach
vergiessen
##lungen
##sinn
scha¼
mescht
##bech
zuelen
pir
##yse
##aarbecht
##ld
##uede
beh
vermesst
##gelaf
##rou
aren
rond
concern
bliwwen
villes
radiostatioun
still
ausstellen
dimmer
perman
matgedeelt
##zz
meiglecherweis
hits
##ines
escher
nik
praisser
gebai
##par
stonne
konkur
wierder
68
kaum
emploi
##eeder
##fil
absol
beamten
amerikanesch
##enkt
##bach
##idel
##ckel
globus
ess
gekl
verhand
##kord
dok
##sper
woche
memberen
butzeg
dueb
zeitung
##oppt
mupp
york
gewalt
##rika
##sd
zol
##mt
paus
ettelbreck
pensioun
hut
region
posten
mars
gelies
doudeg
##schnett
geheieren
##lex
winzeg
speider
##vie
daus
heiert
strech
gold
mater
##yen
exper
fehl
##anda
responsab
##aits
streck
dre
jee
lycee
##iren
optr
studio
gleewen
musee
##ns
rh
##39
##wahlen
##uelle
glei
##ada
confirm
asch
##inee
##h00
unh
vereen
##ammlung
aerdkugel
infra
amerika
rallye
contra
bri
verstinn
##affen
cette
##38
ban
##illes
2005
gefier
dipl
##emie
##gelteg
europaesche
tippen
meeschter
verschiddenen
luxembourgeois
##ito
##ule
michel
54
fi
dreck
froe
virsch
opgeholl
nuets
##politik
##sgrupp
breet
enc
##ime
##ection
gesi
eierlech
gescheckt
duche
observ
##etzeg
ete
wielen
bannen
aka
##lam
viir
##iessel
kaschten
##gence
stol
##oungen
##iche
entreprise
##sz
jung
pou
denschden
camion
duerd
vergiess
extrait
##falls
viv
eel
##produ
gegrennt
allermeescht
gab
informeiert
betrib
400
##unnt
##otzt
##efall
waim
##ures
##ystem
hon
bien
mega
fliger
helt
league
ori
hoch
kro
fesch
geba
mac
gesuergt
stau
ei
netz
duerchaus
dik
##ecker
fla¼cht
ugew
##endant
loscht
##eir
rees
##itions
erauskomm
parc
isra
handelt
wm
##fekt
##ua
quasi
kopp
ihr
attent
peit
firwaat
philipp
##ienne
waimount
ziel
konnen
##alten
haben
##organ
sue
math
traureg
sche
##zeieren
ugek
##elmeisseg
##riwen
##baach
opin
idee
misste
annonceiert
bauer
entweckelt
daniel
occup
##uerm
saz
geha
sender
51
##ony
schaffe
jose
chreschtmount
champion
rumm
demon
##ev
minista¨re
kaz
israel
steieren
##port
##aturen
brd
hig
##gaang
##iven
##sil
coupe
##ditioun
##zeien
geleiert
##eth
dogeint
hom
tw
aarm
sau
verglach
iwwerh
spaweck
iwwerschreft
negativ
rendez
close
ausgab
hannergrond
##verk
bann
solidar
waarm
finanziell
entdeckt
kop
phot
om
konkurr
##burg
wurschtegal
sicht
treier
52
##ees
box
gemellt
ub
maart
communique
##ounen
wunnen
gaascht
##raus
##faass
heef
diplom
##eedeg
meeschtens
gemeinsam
##osen
epis
dank
luxair
bur
jiddwereen
##brennen
staatlech
41
##brit
feder
gefeiert
##antik
deputeierten
##alog
donieft
liber
d´
schoulen
dauert
##oler
regel
koumen
armei
landes
betre
deifferdeng
connection
resident
griich
brut
schum
##vi
konsequenz
##ammen
leisung
dossier
##ience
##ume
skand
cir
##rib
##60
proposeiert
##ungsm
zielt
enqua
impress
forum
##waasser
opze
##bi
gewessen
exc
liest
ennerstetzt
##ierkt
japan
##km
presse
deet
stemmen
##aaf
rett
jongen
herno
probeieren
eege
maer
##liewen
velos
150
##cen
##otto
##heem
og
dun
ry
dokt
jam
beloossen
##ts
haaptsachlech
##istan
macht
ziv
##zunn
direkter
betount
kino
song
##iner
##heeten
esp
##iot
fenn
kenschtler
denkt
brooch
2004
demonstr
ara
spilldag
zong
sat
argument
##eure
live
wunnescht
##ize
holland
geng
stei
ari
zentral
ierch
##lig
altern
##tern
news
##cri
53
621
mooss
avant
betriber
niew
prisong
ugeholl
zort
einem
##udd
schwarz
hierschtmount
##britann
appartement
toun
zweeter
bewe
tenn
##ift
##fueren
##enee
klappt
autobunn
chant
##uis
statt
autoriteit
helleft
lab
kaafen
wenschen
kath
konz
daitscher
perio
##egel
internationale
fach
realiteit
##graifen
gemenge
lor
##ales
opinioun
##fort
##loun
##ateg
gerecht
sams
wil
europaescher
deit
##elchen
matbrengen
gezunn
##ney
fong
##ery
even
##fteg
buer
heefeg
mensche
sief
route
petzbuerger
loc
frieden
love
##geluecht
erenneren
##arbechten
drem
been
##pper
leeschtung
formatioun
mettler
anim
gesiicht
demand
##ventioun
##ellung
praktesch
betrie
##itte
arer
affekot
geannert
verda
groussbritann
bour
zefridden
cra
##cut
zb
##iedeg
kenni
##isatioun
nennt
##gesetz
tick
lol
mettes
republik
getraff
zentrum
lond
maschinn
##besch
uertschaft
div
gesetzer
##ita
pen
appel
roy
haiser
##sw
carriere
##ensiv
autos
objeten
particip
emge
charts
anneren
insp
broochmount
roueg
##70
##ieis
##joert
heen
hiir
propriet
eegene
lar
##ennung
greisste
geschafter
ses
point
kollegen
optim
gelongen
##gei
roude
##eldeng
##abor
profiteieren
##phone
kucke
etude
joerhonnert
brand
prix
fans
##kommissioun
schreck
##ifest
##con
nohalt
tu
raich
##tere
##spar
verm
dien
##laf
groussbritannien
kei
kueder
##die
ekonom
unioun
wiere
societeit
wall
##oise
secteur
ausg
produktioun
##olt
reageiert
ugesch
analys
geruff
meeschte
long
62
##ekret
bot
nimm
##uess
haaten
##si
digital
frontal
##78
bericht
permanent
##aangen
##ulatioun
rod
gang
ois
kommt
##ierksam
srel
##rukturen
chang
beem
by
erwei
nombre
sell
englesch
##uster
sougenannten
wis
monter
entwecklung
##jeng
##kal
zerst
##daag
teschenzait
servic
geigner
mellt
schwaar
##reicher
stadt
atel
gehollef
bob
laur
erwaart
##elles
alleguerten
jahr
##zesetzen
cho
install
##idence
allerh
weber
ausl
##dauert
parking
atom
lat
etabl
zejoert
wanns
##chten
##dreiglech
weit
erklart
##kerung
anert
kritik
aart
dobaussen
punkte
##reit
erho
haartmount
##zeng
##werten
gelaf
eeg
condition
publikum
##iseieren
##itten
fiel
##44
attack
occupatioun
sor
waarden
kafen
organisatioun
ausw
heemount
##liche
finale
bommeleeer
enf
mesuren
warend
etat
##president
bauen
drett
iwwerall
moie
nou
deemols
plaze
honnert
deg
spid
infrast
##eidegen
za
##pret
saache
##22
ausseminister
grande
##gende
obl
offentlech
dod
diskuteiert
##ya
norden
metz
gast
##erc
rum
grengen
denn
kompon
##uele
##leescht
sonndes
##schef
bam
spannend
zitt
wort
industrie
ausd
mik
##ral
mettlerweil
jer
henn
feierung
viraus
produzeiert
buttek
weg
kreie
muecht
uer
nouv
##dengscht
bef
##heim
##iwwert
richtege
meeschten
##klass
bern
modern
aver
music
opmierksam
bom
weiderhin
gewerkschaften
figur
bestemm
fallt
richtegen
##stemm
##ibiliteit
editioun
##nachst
besschen
##uchen
prenz
##als
studenten
##71
chreschtdag
##stoff
covid
gudder
##ida
devel
waisse
majoriteit
positioun
schecken
mme
maria
behaapt
scheifer
##system
##auss
dobei
bensinner
helleg
anne
##frist
##elta
ministere
recherche
diese
##ikt
verstoen
topp
##90
absolutt
diff
##iesselt
eck
geluecht
souvill
stroossen
andeems
leur
proc
verfass
souwuel
brasil
comme
##daueren
##arche
wisou
rekord
ambul
theor
##gehalen
reun
porte
##ennegt
##bol
trei
##sf
##ville
pierre
wesse
va
ram
slo
##rees
hannend
intell
##bez
datum
##ovic
##geschicht
##buerg
fett
fix
suiv
jonker
##ements
nodreiglech
beru
gedanken
objektiv
avance
ennerstetzung
letzeb
##eau
##ael
confirmeiert
scheinen
normaler
##lang
##zaiteg
##33
##ran
aufgab
sante
wour
bie
deels
jemp
poste
etz
grem
##ches
##ense
##ekretar
##floss
##gefuer
finanzminister
mellen
gewannen
##stann
##onna
##genda
fillen
##olas
erreecht
##andid
uns
arri
poss
satz
majo
ugewisen
##welleg
##embre
geseit
kaff
perfekt
strof
schutz
thom
waerte
massiv
falt
ps
##ager
##onferenz
natiir
warten
ofges
##eschutz
ah
##ather
##egkeeten
home
##hnen
hoer
##atoire
inc
agenda
ausern
ces
##insi
wurde
##eleg
ala
riet
ongef
statist
##vue
vog
##eisen
benotzen
begeescht
realiseiert
##reift
ainsi
##len
francois
orient
leon
hierem
##quipe
maacht
canton
berichter
blod
final
versicht
naicht
selwechten
ress
diskussioun
erenner
##inatioun
##dien
##ekter
gespaart
vot
##iness
2003
scha¼ler
zald
gepackt
dout
##emat
chris
erhei
lieu
jore
waer
bewei
hellt
##gol
fonctionn
##ecteur
regierungs
##eich
##looss
liebl
jud
##lass
mou
graf
somm
bouf
kapit
kontrolleiert
conditions
##bildung
droen
eidel
differ
basis
##55
##aarbechter
erwu
interpret
computer
reaktioun
leiw
verwaltungs
##entin
uber
journalist
sauer
sollte
soe
verbueden
museksgrupp
wues
publikatioun
stein
ofge
ministeren
sach
##derung
heeschen
##programm
##ofhang
namm
ervir
salar
emissioun
ahnlech
oblig
##cteur
relioun
ekipp
##nam
ever
gestemmt
gotteshaus
david
fanger
leader
inviteiert
##ieur
##dru
betrefft
secur
69
adress
##alesch
konsequenzen
einescht
countrymusek
woubai
agesch
kritiseiert
alp
ugeb
handy
etzella
bist
##onge
black
gehalen
##andelt
##back
##une
##dercher
ot
weltmeeschter
appro
##ener
##hrersch
versteet
texter
klick
sow
symp
demande
prov
kuerzem
eegenen
##zestellen
##arde
##inen
harm
##ode
hab
table
##wenneg
##statiounen
##ensioun
feelt
iwwers
kna
##unt
##hellefen
spekt
hora
##iqu
co2
##best
##ktiv
vuelta
plast
duerchschnett
##uner
persoune
##fol
kampf
nationaliteit
administrativ
##bet
##uteieren
faarwen
martin
profession
reim
circ
##echnen
##eeft
tunn
smart
weltkrich
natiirlech
fan
deer
access
lossen
rechter
##ormen
vergaangen
cool
opgefall
##stattung
konsum
vei
rekla
feiss
kraaft
##yden
verleieren
mauer
##ace
via
##ermillen
##staat
aktiviteit
domin
##don
##66
mesure
beschaftegt
##rem
hoffentlech
##emmeren
entscheedung
##wwel
iwwerhuelen
##lungs
schock
gallery
##gram
phys
dj
null
mellech
choix
sant
tva
verkeiert
##cript
rapid
##ish
##reng
##ourn
bord
jeunesse
carte
pdf
london
##etzer
##cing
virgestallt
##eland
cycl
##halb
faire
##anesch
bir
##ronk
gewinnt
##arkt
that
stecht
bravo
nopesch
##yt
fair
ministre
regelmeisseg
leed
pab
##anna
coure
sara
aawer
##chester
affaire
iwwerholl
krimin
600
##ierf
##isseur
##24
manifest
darf
##ologesch
##ico
utilisateur
##nahm
produzent
##ission
sans
vok
entgeint
aarbechtspla
giel
agel
maison
bert
betra
islam
ii
wasser
jid
##loe
fand
paart
direct
konzept
##ronom
with
gerannt
bildung
erklaren
##emme
##wou
strateg
##iichten
diesel
berichterstattung
##minista¨re
daach
vue
##zenter
secherlech
##bed
1000
##ðy
aven
##riwer
bannenan
##deeler
##ditiounen
dai
handball
vertrieder
rent
pha
batter
##geld
original
verdeelt
##endre
pur
##orten
##rait
##spolitik
eeler
marie
##hrerschain
katast
urs
aktuelle
##altung
##fel
##75
greff
##cke
bereet
buerg
rand
adapt
verdengen
begr
##ppe
asbl
bedeel
getest
##appt
medik
trupp
spueren
gil
##14
comite
##laang
##fa¼
ausgesinn
getig
enquaªte
moyenne
##projet
schoss
agre
iw
ferm
##vee
##vic
##olo
duerft
lanceiert
bent
uginn
oph
weidere
##nisser
schaff
mens
tierk
neits
tater
donald
spidol
##alismus
##ream
handel
aktioun
content
##ado
mitt
michael
haer
##ura
##flicht
rub
knapps
##vere
economie
bewegung
http
reserv
suite
drechen
aªt
ermett
##zegoen
moto
engageiert
alldag
##eits
kontrakt
profiteiert
baussen
##loossen
##ose
accept
bande
daueren
ki
developp
lc
conf
##usen
##kaart
##zielen
cfl
franseischen
##stonn
800
belei
schlei
##geigend
unze
gemenger
tat
ogbl
64
##kamp
soot
fotoe
goog
succa¨s
fal
ausgel
##effin
klappen
prasident
center
##gb
geschichten
##zelt
kirch
ukucken
85
##akter
tipp
##rog
favor
steng
behandelt
daerfen
##ammelt
##ischer
fridden
fraiheet
baueren
design
zo
##gh
##kan
ba¼
tennis
##ynam
wan
bull
ongefeier
##ness
reb
indiv
##leet
##eriwwer
laurent
##uerer
fenster
deux
send
literatur
##personal
unerk
bod
geleeen
sougenannte
##rien
##ban
##egd
huert
##rueden
##rement
wierken
inselen
kru
##gro
lieft
ongew
pompjeeen
##deelen
fein
##95
kaerjeng
63
konzern
aktiviteiten
world
renn
protest
sall
##eges
geroden
##bra
block
##ars
fernand
opger
class
pech
##rech
##zy
##eidi
greiw
gleich
flenk
vern
##ular
brong
##dreckt
steiert
##ika
cit
190
##iber
fleesch
##68
info
dorops
dort
landschaften
verbrauch
cle
agesat
individ
publique
prozed
blanche
superm
gewonn
erhoffen
blutt
osten
dev
action
##desch
##hlt
statiounen
formel
unser
elterenhaus
daten
scheint
aktuellen
tsch
##red
good
bauwierker
dof
##herzog
visite
ero
##ances
verglaich
noper
##iance
prote
deeler
eenzegen
##ierkel
95
hierer
aust
wit
xav
guddes
##gesellschaft
medez
clienten
disc
lut
vom
##ceiert
##udi
tester
geheescht
erh
speci
erfahrung
##kor
##sto
##spres
open
ems
##65
cs
zoufall
wiseler
##reint
kersch
hannen
vitesse
dreit
natir
##beamten
barb
spierkel
##uerf
##iat
henri
##reform
besuch
pays
drogen
quarteier
##broch
jidderee
##elaang
##amerik
sn
fleien
logement
instr
##ree
distanz
mach
kein
guy
beier
ugekennegt
rezent
doten
daischt
##ensen
##aresch
notzen
gremium
691
##atten
packen
##gung
ugekl
sms
regelen
##ature
##kar
##brei
##auf
erwaarden
kandidaten
cin
heemecht
##schnatz
##isslech
stecker
##riecher
##icheren
fortsch
kult
##wuert
##echert
realis
sem
steph
dikt
##uerte
stil
##wald
##selw
karschnatz
##endall
fardeg
##spresident
weather
noutwenneg
commerce
dovu
##sstatioun
##ousen
yann
grat
erwuessen
verdacht
gesellschaftlech
nidd
chambre
##ape
ther
##schreft
laafen
##eldung
##iam
oppassen
xavier
##isa
themen
projeten
##este
##ffel
##duerno
vereff
gefl
schlussendlech
gespreicher
##umen
mueres
drenken
vokabel
##bank
attra
##ano
virdru
schreiwt
debut
obsch
verstand
ahnung
##cent
##eline
##rang
##isioun
##etze
schier
geiges
##hlet
contre
eescht
arrond
effentlechen
neen
liebling
iergendwei
##opt
genre
##xit
##uu
##77
onofhang
betru
erklar
##sprooch
grousst
peu
gemooss
huerteg
##eu
platt
solltt
##orte
commentairen
kamera
ker
ugesinn
cann
mas
gramm
##ards
lafen
vogel
mut
business
stin
frae
##ppelt
fraktioun
##sicht
hans
neu
##pon
neess
mateneen
generell
schetzeg
spect
nomett
fass
luxus
keinte
tasch
selwechte
cultur
versuch
2002
##leeschtung
##unter
##angel
##mi
chom
1999
konkurrenz
meedercher
##zuch
severe
versta
obama
skandal
jh
erl
iwwerbleck
dretten
fant
bedeitung
##xis
pu
mindestloun
fund
erausf
aªtre
staren
geschafts
##onneren
##ainer
##eite
operatioun
union
inn
souwei
exige
natirlech
##usioun
nodeem
plastik
joseph
stoungen
##laichen
schellegkeet
merkel
fennef
fresch
entt
cup
##icale
reda
##ible
kriib
##ieen
##ophie
##85
vote
import
nicolas
stab
##rock
mound
feeler
promot
##ionnat
dynam
##ific
spaicheren
one
##agn
terra
61
temperaturen
##ministesch
chauffeur
##spra
##smettel
##fristeg
##ionen
bio
##amment
brauche
entreprisen
struktur
schwatze
sprong
jc
##otte
fa¼
##glaich
flotten
dokument
amerikaneschen
pompjeee
##bal
personnage
luxembourgeoise
migr
##esa
artist
##cription
famillj
russland
persp
vie
##prob
may
bascht
##esel
##eira
atelier
laachen
##aaaa
paris
coach
ausso
monde
##hel
vrun
##lagen
ennerstetzen
material
play
profit
beneidegen
internationalen
##ool
risiko
duebel
bekannte
koppel
meedchen
vize
zig
technesch
mataarbechter
afloss
patrick
erweideren
motto
##cour
##43
keim
hiere
glaichzaiteg
kommunikatioun
lenz
emgeigend
teppel
condu
staar
tous
zem
auslann
dokteren
view
ugef
iv
philos
ambulanz
google
beet
##a°c
bonne
##useiert
mur
betraffen
250
##ktiounen
sa¼d
##entweck
horaire
ment
germ
greisser
voller
normalerweis
amer
figureieren
##stein
femm
elektro
christian
schreiwes
##echerung
sportler
drems
franseischer
goer
mettelpunkt
oui
geingen
chauffer
##41
ausrieden
##liga
feed
madr
##ware
verein
##prais
hob
explo
campagne
personnes
verainer
##unk
wiir
genug
##ory
schwetzen
##omme
schol
exigees
73
dol
kinder
##imeter
##noi
duree
neicht
amplaz
elle
##gebrach
ennerscheed
dot
kathoul
foll
##ioneieren
thomas
jang
sound
schwaizer
72
mask
hard
zus
##eber
passag
iwwerzeegt
honn
georges
fw
ugest
kach
schengen
erz
freides
prett
leist
verkaaft
aass
verlei
erkennt
immer
holz
##wood
##rak
##ruppen
generatioun
human
permis
dervun
##egraff
pressek
twitter
passen
##oin
freijoer
##star
allerhelleg
duechter
potent
polic
##jou
fit
viell
intressant
##pol
klein
force
madrid
##scha
uelz
ministesch
krankheet
pc
virfeld
cafe
uewer
kart
drecken
betruechten
##fuerer
laut
spannen
##net
##waach
##prooch
optrett
buro
iert
aanescht
fanne
##riechend
##roph
witz
decken
recomm
tage
##roden
##leen
arrivee
gedauert
pit
##vaux
##ink
lacher
##grupp
leiden
syl
mons
annivers
##ary
##h30
pei
##iture
##hier
stress
ausgesait
##kore
verfug
cop
##ises
nick
drenner
71
jidderengem
vergaangenheet
kleeder
##ausch
klenger
##golux
##istin
oliv
gezielt
gefalen
synd
fuerscher
arrondissement
klemmt
securite
uelzecht
##rekt
##ineieren
fluchtlingen
salz
##iler
verstoppt
sympath
zent
siicht
##scheier
##iwer
##eo
##trat
punkto
nennen
##fert
##gespillt
folleg
buhn
weideren
agefouert
##nahmen
beruf
##ieu
ugefaang
##mosp
opst
hyp
falen
aar
investeiert
collabor
reeg
gewenschten
allerd
qualifikatioun
##anie
tunnel
subito
dierfen
##assen
selbstverstand
##zeginn
78
schrett
ausdrock
feelen
##alb
##emount
halleffin
gebuertsdagsk
danz
hamm
##park
taux
hil
racing
appl
wies
akzept
##isst
schied
flf
bestuet
emil
kanns
verkafen
victor
##urch
blecken
##elter
now
sozialen
##vention
verbessert
chancen
##cedes
##iewt
##ube
##iley
gilles
besonn
1990
staatsminister
ries
geklaut
##rer
kim
##ionneiert
##ws
kaschte
bm
kad
doudes
big
autoriteiten
spek
trend
flor
drette
begrei
polizisten
richard
anti
##ugelen
##ariat
uno
##hrer
beschaftegung
responsabiliteit
verdeedeg
passageier
verpasst
entstanen
rechnung
##ase
gefalt
technique
schwe
##hle
mc
##isl
repro
nad
hanken
wantermount
louch
geleeenheet
allerhellegemount
lcgb
gesondheets
gruppen
decke
##yla
quant
##rier
retour
veh
##ls
transpar
ten
vermei
diskussiounen
erst
##schw
gerard
basch
allerdings
##yle
##zesoen
ae
informatioune
notamment
patienten
goe
studie
##istenz
ihre
letzebuergesche
##eede
cg
leiwen
f91
doropshin
iran
amwelt
##ake
charakter
wuer
wonsch
##dei
wesst
ower
gespuert
cargolux
membere
120
##ellegen
futtball
kandidat
kiir
chines
kolleg
acteur
steht
brexit
paerd
##ierung
##hrt
stark
grenzen
##kont
zivil
aussoen
automatesch
ost
soziale
procur
alen
gespa
gegen
##gerecht
##paken
mierkt
##ppeg
ging
informatioun
fraiwelleg
##amte
##rank
greisst
##allen
99
##ani
##indung
pand
sachen
plat
##bien
hudd
remark
ouschterm
gas
charles
virgesinn
sous
chem
##ifizeiert
noperen
##ref
pouvoir
##cia
zolidd
kaaft
code
ofw
professionn
treffen
##las
benz
mercedes
dauer
parcours
##kritt
inspir
ign
wolleken
stemmung
mini
dieser
princ
ausserdeem
##schlag
normalen
##auer
william
kent
empf
geescht
##ruck
legend
notre
jack
jacob
fehler
intensiv
fuerdert
##way
##stert
nouvelle
tut
agence
##inte
700
iew
rat
wahren
wollekeg
mobil
legisl
medezin
opgebaut
gon
vertrueden
##rimin
lam
veranner
##omer
len
scheckt
verhalen
cours
konfl
onse
berou
proble
##bass
juegd
roman
asyl
image
##uerd
##esper
gewier
mari
king
##het
saite
leet
##ax
##steier
afall
##rennt
expert
gros
minuten
pressekonferenz
iddien
gt
charel
description
##bauen
##ifer
samsdeg
lot
##visioun
lieblingsstatioun
##iisslech
ital
europap
##verband
erlieft
experten
immobilien
toler
##agement
##slo
traditioun
##rott
##meter
##teuren
##nech
iwerhaapt
schaffer
schwaarze
initiative
jcj
##anst
##zell
gaart
bilan
lieserbrei
##verkeier
wourecht
flo
lil
secherheets
bestro
visit
##sait
##fereen
spektak
##antwert
eric
##76
lenzmount
sos
auskl
##aen
huele
alias
menscher
##ual
##hafen
opfeierung
representatioun
haaptstad
day
ausprob
beat
aussenzait
sera
##12
##atzung
dorunner
deleg
afrika
##leckt
gekn
parall
##eille
serieux
beraicher
polizist
prest
rieden
geschriwen
kommentaren
##ratt
##duerf
##88
engen
##bast
jus
##film
organiseieren
##ebai
gedronk
elementer
##siichteg
##ternach
180
from
ust
cert
deemnachst
feedback
internets
anton
wolf
loyer
##wegen
hb
weinstens
periode
domatter
##root
ma¼
##let
exist
nachster
renov
##roe
comic
infekt
##ae
momenter
bd
voy
jidde
seechen
daierlech
##lek
frendin
bentje
##kes
##weren
jeann
rez
sonnen
hankt
tv
benef
dessinee
##ikes
##smann
##ouf
sort
personnagen
##onde
ennerschriwwen
ach
sendung
ersta
tournoi
hop
##anien
konserv
##bur
wierker
##izit
loi
onmeiglech
europaeschen
pascht
boys
##79
##ski
deemol
konsument
aarbechten
leeschten
##ior
autof
peiteng
##mund
schwei
##reiw
eegener
identiteit
##ington
avenue
##enst
verantwortung
##erei
##zo
##ouse
##ersaits
solo
##quis
##omen
uges
braucht
program
agreabel
##tre
##front
feel
weint
drucker
undaueren
##31
atmosp
brasilien
sun
barcel
##dat
loosse
##ographie
bundesliga
##tm
politeschen
langu
pel
iwwerleeen
geheimdengscht
cm
ing
##pen
holler
psycholog
wouer
eltere
radaren
ofgeschloss
vertrauen
inno
felix
waffen
stadion
technik
onsen
ord
rieds
##ollt
asetzen
##isk
engel
##iesselen
green
garanteiert
dall
freieren
gescheien
avent
herzog
scheine
##gener
dodraus
festgestallt
millioun
##a®
muuss
james
jazz
##¼ck
schmit
##una
ebe
roud
schliisslech
plak
freeen
##ged
virstellen
jury
marchen
trou
korrekt
vari
steb
bru
##deels
konzentr
##utzen
wunnt
doch
politesche
dieren
##leeft
##bles
gemengerot
wain
hein
esouvill
ausf
invit
staaten
##act
boule
bannent
uerte
##frai
procureur
gam
erd
ende
pilot
##oft
glaichgelteg
##kampf
##ra¨s
##emmert
gittar
albert
language
firmen
##gewisen
freed
##zema
frankf
bezeechent
trajet
enfants
nouve
verbonnen
##eiden
sorry
veg
garage
verlooss
##ador
ela
##fter
manip
populatioun
sab
spuenien
##illa
deitsch
assist
##hann
ausklugelen
verhenneren
##zon
88
entscheed
gesamt
cast
rele
onver
duerchbrennen
langer
recommand
##fte
kapital
deelweis
virber
##auschen
cy
##ones
##day
meiglechkeeten
qualifizeiert
erwescht
alexand
beden
stroosse
gebaier
journalisten
74
ees
ouvert
##bera
los
gesammelt
regist
administration
duerdann
geklappt
stramm
training
freileng
dene
iwerall
touristen
##ssystem
profil
attentater
landwirtschaft
meck
street
kameidi
argumenter
##gens
1980
##ruktioun
##ires
##getrueden
gesaat
##amenter
nammlecht
##ese
chall
##andidat
sproch
##gangs
lt
##erdem
##industrie
rechts
##wahl
aanerer
rettungs
entw
antwerten
ligue
talent
mic
kaf
##itutioun
rechnen
##eschte
zigar
pf
entscheeden
##69
zersteiert
##log
##reieren
konditiounen
kaal
klassiker
onsch
boot
zeie
fleck
dramat
##ids
gere
tun
##zebauen
express
##derungen
##uit
##ston
erliewen
ubel
retard
ages
##harm
vunn
hochzait
wirtschafts
symbol
civ
beis
lors
entf
##rengen
consomm
firun
modell
gangen
##match
verhalt
studeiert
##iddlech
staatsbeamten
direction
##organisatioun
addi
martine
fonds
##fp
glecklech
ufanks
barcelona
emgesat
schafferot
nos
ouschtermount
##upt
komesch
zesummeg
vereenzelt
fils
##onda
konter
matdeelung
ableck
defense
decisiounen
kno
iess
##polit
##direkt
dispon
intervall
versichen
##kier
samt
##zig
##fic
romain
##ctioun
opgemaach
##immt
bezei
debatt
kle
drenk
faerten
iwwerd
echt
minimum
gmt
jes
anlech
ouer
##emt
iwwerrasch
mak
loun
deputeierte
##entz
liewensmettel
beispiller
##aacher
kill
nationalen
##for
##ierg
##unden
pabeier
##ynn
mio
fuere
contrat
##iana
sports
zougel
jempy
munchen
ouv
aktueller
analyse
kritesch
##vard
infizeiert
niewebai
charl
carol
landschaft
##bus
##ence
kommentarer
onn
ofginn
deklar
gala
##issance
anniversaire
loung
gedreckt
eistra
verbesseren
betrieb
lob
preis
pont
gemat
1998
##reiss
kred
##orial
foussganger
generals
kurz
##deckt
flotte
duerdunn
komponist
speitstens
rockhal
##eser
##aerkt
bekucken
ausstellung
roum
aler
langues
revend
schick
glas
debat
hoffnung
retsch
night
##ima
astronom
fei
tir
bestat
deut
dain
##uden
work
##hh
beit
damp
concerten
bast
episode
nues
suergt
##unch
verglaichbar
##oton
geschwaat
1995
greisstendeels
##fless
vielleicht
oct
dernieft
elektron
##kap
##partei
##oder
cli
prevue
ofschloss
nerv
erausfuer
australien
##ilton
your
weiter
spautz
arbeit
77
donneeen
doc
joe
hechst
mem
##scheid
analog
perform
##ania
##anks
##inter
rm
dea
waissen
veierel
kinnt
##fong
stech
wellkomm
jacques
enk
##resch
elect
maur
niddreg
unhuelen
##zemaachen
fillt
walen
##vol
nolauscht
keiers
##89
##entlecht
ufanken
this
cab
ferr
##amerika
eenzege
##masch
invite
##atsch
##dep
message
zesummenaarbecht
peter
bauch
anstatt
leiert
fola
opre
evenementer
gemierkt
veruerte
dram
##rainer
meih
##plang
griichen
##iedegt
ausbildung
##fax
gefuerdert
misc
vul
bezillt
kommiss
##li
adam
doo
onser
##asch
stack
geschw
fuuss
##eierter
bruch
sebast
##leis
wichtege
dikrech
presidentin
##ellegt
decl
cru
jenn
dergeint
territ
conseill
stock
demandeur
tor
happ
##oooo
mikro
##kaschten
kompetenz
fell
ligne
funktioneiert
zone
onbek
haaptsaach
81
##rieder
behuelen
##iens
person
##lenster
ideal
mord
samschdes
kul
postes
##arl
geplang
eenzegt
##ationen
gaange
verschafft
colmer
planeit
fransous
ignor
##ical
gerechent
rene
student
editions
junior
wuesstem
##eeschter
conduire
wells
noriicht
vincent
clin
reven
##isc
##verw
did
pak
autres
versprach
opgestallt
verbesser
verlang
##ercher
fraiz
aarbechter
##34
##eidung
##jar
##ril
patt
##ola
hugo
gezw
##lafen
kuerzer
solidariteit
##annter
##gek
##ria¨re
gibt
##sis
deta
foyer
##naire
jeff
nometteg
##ram
##zueler
##ppech
stee
##essel
gedreint
pad
menge
coup
position
##bbel
kollektiv
osc
##iforn
dela
welles
##blatt
entret
##igt
bereierung
reischt
lauschtert
##meescht
verfassung
wik
charge
##hrung
besselchen
broch
ausprobeieren
dengschtleeschtung
smartphone
heiten
ober
bewa
produiten
fonkt
ner
##selwecht
optakt
reglement
relig
##ifs
opginn
souzesoen
##schte
dialog
tip
##udel
trefft
regional
sonder
essai
temperatur
flug
bleiwe
indien
global
nofro
##anesche
alz
bidden
##arta
komplizeiert
##nidden
sehr
pandemie
voiture
amicale
##skescht
servicer
laanger
ausze
chomage
medikamenter
##onnement
##saits
letzebuergeschen
contraire
##riichten
kongress
yout
selbstverstandlech
hallwer
enquet
culturel
koup
insekt
schlee
etwa
##problem
protok
##erhaff
##arlament
group
##shaff
##aines
heiheem
sha
zann
generalsekretar
##iesslech
1985
reiden
seine
##igung
76
tank
suden
leid
##club
jungels
reser
##ckeg
zesummes
che
collect
verlaangt
##heik
zaldoten
respekteiert
houf
meedecher
geheit
cooper
ma¼n
athen
decideieren
bach
##ummen
televie
gal
##cca
##uneration
##ago
groupe
##geweinlech
##mass
som
lag
##eelt
##sal
normale
##anzler
irak
neiegkeet
stierwen
##verka
##versammlung
panik
famille
##istesche
1997
riskeiert
proffen
deutsch
gedoen
courage
staatsrot
rol
##bourg
waart
##platz
quar
christop
fernse
geigendeel
##bannen
assoc
anstanneg
auteuren
##eschhaff
isab
scheffleng
innov
gewessheet
tourn
italiener
propose
pai
accidenter
##qualiteit
bunn
ruck
##cheiert
frankreich
##steck
##aro
herm
iron
maacher
uerteel
personnelle
zitat
verwonnt
##ject
views
kitt
##tel
wousst
gag
gedren
zaite
klammen
images
geklommen
##regioun
fla¼chtlingen
apra¨s
sechs
souver
lamp
pian
agestallt
##isteschen
83
##ograf
##ton
stolz
##aliseierung
ausdreck
vermett
liwwer
##ki
baschar
eta
mix
##otatioun
strategie
##vet
##entlich
hesper
begeint
##afel
schierbel
spuenier
##once
1970
bodry
walfer
tableau
friem
schwester
mex
dortmund
##spl
glace
neut
viol
schou
##ardo
##stemmen
lb
##echnungen
brook
80er
aide
##geren
tei
##zefeieren
##ruff
astellen
queesch
austral
gidd
deelen
hallschent
##zengten
##59
luxemburger
##aacht
gewiecht
leb
perspektiv
##buer
fat
redaktioun
dop
ana
joere
##ebunn
verste
##oiren
1989
ped
bad
ng
pne
leie
##stemmung
##mal
##ras
verband
festgeholl
ree
duerduerno
social
fotografiegalerie
spille
verstin
jhust
felleg
##komp
selwechter
##ground
87
gemitt
faill
contin
digit
tar
##echnung
mr
krappeg
insges
philharm
gebr
holly
##zin
##42
##gezunn
rena
initiativ
##uschter
##dall
##trag
impakt
claud
##llen
##usst
aif
##ikel
waerter
termin
konstrukt
##down
scheck
##ebierg
enseignement
activ
zi
ugepasst
##eta
##bliot
##ateurs
mm
iwwerlee
##velkerung
hale
##kam
leift
telefons
hur
##uche
##acken
##falleg
reich
ambiance
eweg
kevin
##ilite
erg
##aff
##deiert
##sl
spieren
getrennt
kalenner
setze
phase
heije
feld
boy
dommage
eistraich
##eie
nato
##iaire
chiff
laange
conn
ugem
virw
office
sarah
gram
##aascht
##emand
##deieren
champions
rein
##gas
##su
##jee
keller
trafic
science
handwierk
legal
komb
allgemenggelteg
##efalls
##entwecklung
produkt
reseau
pikes
infl
emmerhin
control
kichen
intendant
klinik
interessi
komplex
##arin
standard
nico
##igent
##ikat
frankfurt
mid
##erung
leop
weeer
mensuelle
mannschaft
maximal
##klusiv
bridder
##herine
##ordin
erweschen
championnat
zefridde
##cro
arcel
bemierk
virwaat
##bew
noo
strait
futti
ye
footing
insgesamt
brute
humor
79
iechternach
https
##yth
##ctus
europaparlament
villm
##ekipp
apple
wierkt
##zekommen
opgesch
##kei
##zehuelen
rennsport
##ropa
moral
##igkeit
zich
deiere
##eilen
##klarung
depuis
derzou
protokoll
compt
##vre
gelieft
trek
ross
bourse
ff
bea
patronat
##ikal
##ichte
##sdref
drettel
##aarteg
diskuteieren
steierzueler
events
bait
##wessen
gedrenks
edit
##iah
cha´
beide
gewesse
prioriteit
##elsfin
gelt
##raifen
bourg
hubert
passeiert
spend
down
##archie
##67
serge
##itaire
##sburg
##spiel
hamb
oste
spir
genotzt
##feder
degat
##esk
##isme
temps
beliicht
rouden
miser
directeur
petrol
kooper
equipp
approche
midd
##echeren
manager
mamer
exzell
uechter
georg
hannendrun
dierften
##ario
rull
wosst
goaler
island
##elshaff
##saachen
##plus
##icken
queen
sowie
metho
automobilist
maª
joers
missioun
kalk
riseg
##comm
peut
geweinlech
begleet
##com
kos
gebrach
##indest
entsteet
ereriwwer
kemmeren
##flach
##faasst
sociale
honger
staer
##hler
investeieren
aalen
keine
1996
miersch
bgl
hobby
unters
kaffi
duo
gebrauchen
nix
irland
ufankt
quartier
cactus
upaken
##chem
dri
strukturen
##fahrt
geheien
annotatioun
donkel
##ody
##ui
denger
rappen
sig
mise
autoe
masken
fraizait
##gott
##utte
momentan
##oup
daischter
wald
ils
annee
damme
portugal
gespaant
##aktioun
zudeem
markeiert
zeg
sonneg
evolutioun
##fung
schal
autonom
gehandelt
##efa
prozedur
84
challenge
natioun
opgeh
bartreng
tafel
hamilton
amerikanescher
geleist
font
ausm
eso
orange
louis
streng
buur
baut
sekonne
bop
##stellt
expos
aussi
leurs
envir
loosst
iwwerrascht
86
sus
verschiddener
isol
##lu
##ics
spriechen
##lage
aert
aussergeweinlech
jeunes
situation
stemme
##zaiten
demokratesch
reesen
tschech
wash
1994
logesch
developpement
wunnengen
grenge
regisseur
ohne
##emes
kaatz
##haer
hirt
##korea
##vier
ambass
gend
coursen
rab
bitt
##cture
begeinen
peloton
trop
agelueden
##riel
blog
##faerdeg
leierpersonal
##nummer
##hall
embruecht
gerett
zumindest
felic
##eures
finn
put
verdingt
##hnt
cher
athlet
provenz
lach
tag
gefierer
accepteiert
zeng
jonkt
jacks
meind
duerchgesat
residence
wonnerbar
##namen
bezeien
cu
costa
wuessen
gaer
staad
eech
##emble
klaus
jider
##eeg
salaire
eur
##opst
klasseiert
gruppe
##lieft
mandat
britesch
##egeieren
##sver
echange
fille
##emonie
##cal
wey
accu
wicht
meteo
manchester
##olution
getigert
##auber
##secteur
##col
interrog
##ati
faktesch
##erminee
veranst
androck
##redi
##met
bestoen
##ycl
societe
retten
hoffmann
who
prasent
##iewent
70er
bag
solutioun
stri
last
possibiliteit
##einer
kreativ
virop
bewisen
##erdall
##emaacher
daumen
##87
besatzung
##pool
traditionell
associatioun
##onien
grapp
rouge
offer
mait
produzeieren
aacht
##bu
##outen
1984
agesinn
eines
wiederstatioun
aarmut
##recke
##keeten
major
##aktiv
simon
##ju
proprietaire
##nn
1991
##itas
##sprong
professer
lauschteren
89
erfollegraich
trait
vente
lobby
gehait
amaz
integratioun
derbei
hai
andeelung
wollen
ressour
haalt
##ifa
##antes
##emps
##album
verstanen
situatiounen
enseignanten
##eln
immigr
veruerteelt
dein
kannt
##32
##grouss
pek
schong
schlof
aqu
trett
##splaz
kontin
##pping
##etzungen
associe
derfir
##vor
etienne
nohalteg
high
pist
verhennert
limiteiert
##andro
maga
wichtegen
royal
profi
ekonomie
zeechen
praxis
klauschter
ofgel
boun
fortgelaf
lauter
fouer
probleem
lex
femmen
stupp
exerc
clinique
washington
boulevard
cf
##onk
fransousen
bascharage
##dium
1979
occas
hem
erfr
szen
diddelenger
steve
parallel
hued
roger
##hu
drot
##stall
geschloen
##iltz
##verwaltung
coureuren
##cy
##rey
doro
pic
fuhrerschain
cross
rondrem
europaer
baseiert
##over
amel
virges
beleift
##folger
cgfp
##vann
##stel
verhaft
norde
konventioun
jackson
secret
##plaatz
votre
##ward
chantier
iesse
tageblatt
##zone
financ
mool
kontrollen
aasselb
plainte
soft
britesche
##band
##amin
bevelkerung
##schlei
time
heijen
##sdorf
##mage
hollywood
verroden
##sproch
##aangt
130
verschwonnen
##bs
broscht
ophalen
##cer
quel
griicheland
instrument
beef
toil
tjo
nnen
egalement
##wis
prim
bernard
success
freen
remuneration
consult
obligator
##dt
##dorf
ukrain
aerm
trois
##vd
tourismus
aster
##itive
##sste
huelt
rezensioun
trieden
sark
bech
##wandel
##ouch
##haiser
spezif
poopst
82
##ited
eisebunn
gefroot
eh
beau
nav
##jekt
sonda
##issem
dreinen
munner
privaten
provo
wohl
francis
illustr
schwanger
formation
schliesslech
joel
kierchbierg
akommes
schwar
hausse
##lt
meindes
vettel
##aaft
##yson
##kau
pret
quint
giffen
categor
dokumenter
pfl
fli
uerg
witzeg
produit
canc
soit
enttauscht
##kapp
educatiouns
##aache
##elli
verbindung
concours
fahr
gesteiert
cns
##aite
finanzeiert
##uve
ausz
##weise
ungar
##atzt
monsieur
ueb
emile
##kri
findel
##spartei
konflikt
zougang
schwed
##chter
podium
gaeren
siche
erwaard
dowidder
deelt
goerens
feierdeeg
dankbar
zusammen
element
radar
duerchsetzen
##esten
##kris
zentimeter
metal
##ktor
##iction
##grenn
##luecht
##uellen
americ
jahren
##oa
##sweis
##atch
plattform
superd
1992
ofkommes
##kraaft
reih
belval
trennung
vw
houfreg
##kir
dofier
finall
verzichten
ma¼nchen
##itel
##daags
##cess
teil
harry
eegent
allgemengen
weise
##gere
##ros
##oud
##usser
englesche
hollann
iwwerre
forceiert
iergendwann
illegal
syrien
propper
##fannen
##erieur
dispos
effekt
gespr
wannen
reunioun
insekten
flex
##bek
let
fernseh
uerd
excell
sennvoll
beetebuerg
##fi
waff
blues
##vakanz
equipen
##86
ingen
plage
##gehale
polizei
warden
separ
prepareiert
relatioun
spons
##ctions
jahre
##keier
unzef
##losen
##ikop
brudder
##kat
heesch
presenteieren
anna
kay
brot
##pelt
investiss
has
bure
##onym
##decken
autre
##ifi
##dreint
##etesch
##emillen
##egna
##riichter
dages
statec
cadre
dausende
weisst
charlotte
face
zougelaf
##rupt
toute
##ates
sektioun
messer
indi
domineiert
##ea
schlechten
arra
vera
##ebaach
samtlech
adri
amt
weih
erklarung
geleescht
boss
scheissen
groussherzog
vertrag
schott
joa
ned
adem
butteker
beweist
engersaits
##auto
gent
ordre
##abeth
wett
audit
wirtschaftsminister
pack
background
virstand
t71
1993
##handel
ras
##uler
##reiung
silv
regime
##ced
offentlechen
##reckskescht
##stellungen
association
realiseieren
gust
gren
ofgest
iwerh
mobiliteit
fran
leidel
small
niewt
augment
nieder
geschriwwe
ermettelen
ts
belsche
photos
special
unen
##auschtert
satell
verstan
bescheed
mathellef
nofroen
bletz
##stal
##anzt
wiem
jed
var
sid
##eefer
faarf
##echerheet
tenden
untersuch
inneminister
mert
##elly
party
##ulaire
hipp
soul
seconda
##car
sammelen
aifreg
##bie
soulaang
entree
1988
alternativ
##omeo
##edia
expo
mondorf
jusqu
superdreckskescht
souz
baust
ufro
##arbeit
##jour
cel
gramegna
mammen
experiment
glawen
gelle
appar
caroline
ven
allow
sensib
eriwer
##sex
knascht
verp
uganks
bilt
hofft
96
hare
maªme
##leg
##ips
sankt
aussoe
what
betrieber
##iellen
dorun
recette
heures
mesch
laschte
##erus
stuerm
offert
selwescht
##ares
knei
dont
kiirch
nr
ennerstrach
watt
##ribut
##lus
philippe
luuchten
kanada
euros
##ateure
hait
stebs
wierklechkeet
fues
wonnerschein
atten
reformen
verfa¼
like
iwwerp
##arbescht
concerneiert
ketten
uschafen
schauspillerin
erennerung
##uef
krute
schlag
situeiert
happy
spiel
employ
##raine
##ieux
##hof
pensee
fakten
mouer
bekamp
liga
weiss
familljen
verhandlungen
bin
##nel
schu
kun
ric
##slokal
manuel
genial
sympt
##ecke
westen
##daus
##gart
hart
verannert
##ulture
schi
leben
spenden
roth
##gelder
wirtschaftlech
aeren
htm
iwwerhelt
etlech
averst
##eisst
ennerstra
kaliforn
maus
##gene
kanad
chap
gestoppt
##riechung
amen
necess
niddereg
##federatioun
flitt
##haerzeg
##iechen
##gert
staffel
bac
wichtegst
zuele
##eidegt
hee
##asse
amazon
erstaun
pension
##ridden
agent
tatsaach
popular
98
obschonn
cos
takt
zit
chron
1974
ble
##gressiv
ersp
gewise
1986
##elyn
verkl
##lossen
ugreff
wollte
dieses
gell
heij
johann
dreint
supermarche
konsequent
baum
marque
##pel
berg
ferrari
##zwou
##leien
zy
stare
floss
uged
##oy
encore
sl
##cis
signaliseieren
##oth
reding
ennerb
presidence
george
beitrag
##deck
modeller
bell
aussichen
jord
kanton
wurden
##mier
clement
hekt
schra
matbierger
##iale
stoppen
premiere
ugebueden
laangen
impl
philharmonie
lett
typesch
master
konfront
paken
supporter
gescht
zeech
gewessermoossen
gsm
wiederstatiounen
services
spont
##amental
pirate
wonnert
verkaafen
geflunn
marz
golf
andrea
territoire
verainslokal
##wur
entsprecht
##ungsmettel
ubelaangt
##keiten
1981
volley
kraut
##gy
nationalequipe
##versch
etablissement
##ateau
have
marco
##chteg
spetzek
##hale
fless
##osch
beste
remel
schumacher
##beraich
prasenz
politescher
festgehalen
woar
voyages
schleefen
##krank
##sproblem
our
metten
110
bekanntlech
youtube
ausserdem
##find
##has
##breck
highl
##estre
##here
revolutioun
hass
##zung
onrecht
bekannten
enseignant
suer
iwwerraschung
##ds
##issiounen
them
onsem
politique
##abrik
zougemaach
oscar
mettelalter
beruhm
jugendlecher
mandy
##erin
##ergie
##bezuelt
leck
croix
caf
eb
##ia¨res
befroen
palast
bmw
##fs
hill
gedanke
folgend
##iesel
wess
biever
opgel
testen
uru
alain
macron
##etar
inner
benev
verspeidung
brout
marcel
##gebitt
televisioun
##ziplin
theorie
see
##erence
erkannt
nitt
##sener
geschichte
albume
verlangert
termain
pick
josy
##osex
rop
1982
awert
##resp
fondation
##ains
rio
wiessel
wessenschaftler
##plazen
##reiwung
carlo
##oppen
##kanner
ie
geantwert
##ftung
souen
besp
internationaler
paschtouer
ritt
##deputeiert
laschten
##klammen
rais
patter
ongerecht
beamte
##arnt
analyseiert
deift
lady
##jung
##ople
elim
##nation
stef
magn
elis
artic
ausfl
verur
##dauer
##halten
light
begeeschtert
1977
lop
motiveiert
plaatzen
commission
artikelen
jesus
##ommes
klimawandel
##kreien
##essa
##ielten
pau
geinge
faarw
interrogeieren
europam
##komme
##ali
stoff
##dia
eth
##greff
##illet
dick
schweden
scheiss
funktioun
gebailechkeet
92
##leetz
##anka
##dern
motorrad
kritiker
jess
##elcher
sylv
dobannen
packt
agew
jar
##stadt
##opol
sparta
iwwerw
##gronn
tierkei
matkritt
fuerer
schwammen
cover
lamb
mala
pourvoir
compte
uhr
verheieren
##any
quad
##zefannen
mick
gestart
##feieren
leen
##yot
##wr
goler
rascht
##box
bzw
##sn
lit
scholden
fameis
postleetz
bestemmten
postleetzuel
lenn
##apie
fraie
meldung
sir
bee
opfroen
sondern
##ny
erzei
finanzeieren
menschheet
indet
constru
geck
##gesaat
kriss
##ebuerger
ausfroen
hey
indust
depla
meet
##ta
##hop
museks
matenee
virt
diskrimin
stross
schratt
milliard
garantie
god
##emsen
duergestallt
exek
eenegung
diir
verglaichen
gelueden
1987
gemacht
stall
opgeriicht
carria¨re
vereffentlech
1975
assurance
##ket
eenzelnen
tier
##lle
##geruff
beaf
infirm
iergende
iwwerraschend
##engs
##splang
##smillen
gewenscht
rank
##icace
uebst
pendant
interesseieren
##ccident
warscheinlech
way
##ili
maach
enge
agr
polen
erfellt
1960
cyclo
##wan
##gaange
##zahl
scheier
verlaangen
emman
##58
paien
greiwemaacher
91
##ication
indeterminee
##zeen
ali
differenz
griechen
gefiller
ofso
pay
armand
leeen
grav
##ministere
sammlung
doping
refug
eelef
explizeieren
##falen
verstaerkt
stierft
##ituatioun
verlag
1983
ford
##aum
englanner
##schl
##halter
setzung
scouten
sky
cur
##rodu
frendschaft
leisen
froome
hosp
rettung
averstand
nomineiert
##ideeler
1976
##weit
sarko
gezwongen
people
dicht
onfall
gemeinschaft
gendar
##itif
##gehait
sprint
communaut
##elche
proven
trauer
ruff
##mot
##mereng
oner
##ekomm
##uth
##lof
refuseiert
alli
##hung
##bb
matsch
beschelleg
1969
canon
duerchdenken
##wamp
diesem
##zwousch
histoire
reklam
ln
steen
##erts
kaaf
##herr
caritas
ai
160
meth
sozialisten
##gefall
becker
zweschen
##anca
etait
ofs
##schdref
##ghan
dengem
rosberg
##endeels
reduzeiert
##unen
##rollen
##rent
provis
##emark
##61
power
meda
##heiser
zens
premia¨re
350
virganger
infrastruktur
arend
dum
##ffekt
biel
kie
virauss
untersuchungs
vigel
##arft
zoutra
produkter
inhalt
spig
reit
informeieren
doudeger
ez
adopt
petitioun
stade
intresseiert
experience
##faassen
piloten
##wunnen
##anze
konsumeieren
##onni
impressioun
##perio
fandel
guid
primar
turn
gehir
modif
susp
abt
cite
konferenz
more
remb
##ollegen
ausgezeechent
denk
belle
##iedel
prinzess
nouveau
biltgen
verkaaf
europeenne
schief
erfonnt
sophie
jeannot
erna
peffer
##bich
verloossen
##nom
nationalfeier
dierfer
##esco
plack
##iesou
lien
##udelange
wander
##gent
##adem
##beweg
respekteieren
deitschland
##arr
##wasser
urban
##falt
emfro
kab
nier
basketball
##97
christiane
fassong
vene
villeicht
##ications
travers
naturschutz
hellefe
##orde
atl
##anson
mike
##dis
griichenland
leopard
private
fenst
meeschtendeels
station
verlanger
las
foussball
##sprogramm
##uls
duchesse
az
geschenkt
hallt
ugemellt
welche
gaa
halwer
kuch
nora
schlofen
geigesaz
##mettel
##lad
alarm
serio
iwregens
##camp
ofgesot
##63
##aafen
langweil
mig
##ional
palais
##zentrum
##reeg
wagner
tra¨s
portugis
lock
doranner
munneref
##rotz
pupp
riv
##ylor
aktiounen
schoulmeeschter
kampfen
verstuerwen
ambassade
menscherechter
gabriel
card
ego
##ografesch
##istescher
klassesch
prime
##uland
syr
institutiounen
united
gescheit
boll
restauranten
line
##aachen
##rechter
marath
##meisseg
##eegen
parlamentaresch
piraten
europameeschter
dierfe
ausgang
eiweg
attentat
opgeruff
uewenop
##oni
geintiwwer
generalversammlung
offizielle
trib
##quer
mindestens
letzebuergerin
uewenaus
wiss
ofhang
112
dausend
mutt
##ueiert
joerzengten
ennerschiddlech
beweis
##jahr
quarant
hollanner
tha
wiert
eviteieren
##eess
richtegt
vive
uecht
yv
verfugung
ugangs
wonneren
loosen
##skrank
tuba
under
ausb
vergreiss
fill
kruut
minella
belscher
tempo
mouv
defineiert
beze
had
haass
britt
examen
afghan
ve
##cast
niger
commune
lacherlech
opriichten
gasta
emer
##embourg
danemark
bibliot
jas
blieder
medie
97
moskau
93
gleeft
##wi
ofstand
ugekloten
sour
##spillen
begreff
kas
phant
kompens
##wiessel
faalen
soir
doriwer
allermeeschtens
souwait
propag
averstandnes
##win
##itsch
aktualiteit
question
secondaire
pin
err
coque
regierungen
kontrast
rar
audi
format
jores
reageieren
isa
petit
frontalieren
ennerschreft
domatt
zeeche
##atif
bistro
gastauer
label
bedenken
##ules
optimal
##ulen
iphone
bestand
ax
##ulation
toutes
dengen
##ickt
##mod
##oussen
##entree
##iper
renault
wissen
##iiii
erlief
belg
indep
##dec
##fah
rend
first
meizuel
##vertrag
betz
##geschloen
beatles
story
##itor
flach
jetzt
grund
##´t
##zem
emmanuel
##eiro
##won
expositioun
seelen
##udget
effect
##atsel
zocker
trott
argentin
erreechen
geschaftsleit
taylor
mall
prior
awa
##regist
##zebrengen
cha´mage
agest
wider
vall
bilanz
##ogen
##seller
emstr
##shop
gebl
passe
parad
russesch
putin
matten
zwischen
sarkozy
##ebr
wiesselen
urgence
html
wa¼r
komprom
sout
##aks
##hausen
casino
plur
langst
transparenz
seg
ult
atmosphar
spezielle
geiben
base
kannergeld
moderne
gebrannt
belge
amgaang
##rick
unn
feiere
##heiansdo
afrik
micro
support
##rueieren
kierf
##hou
##festival
##volkerung
efficace
rens
unfir
opgepasst
aent
iwwerlieft
four
##oos
bry
nopeschlanner
gericht
space
##leisst
landen
viele
schlechte
bezeiung
arden
luis
industr
schwaarzen
##ying
spontan
##etti
lokaliteit
##haaptstad
subs
aischt
destin
ierp
nohaltegkeet
afin
yves
##xim
##icap
##nett
##organis
darfen
krees
protection
trim
lokale
##oi
compet
statut
zauber
##ccord
claire
##ermooss
respect
fehlt
defizit
autofuerer
##illy
etuden
##gaass
kompetenzen
panora
##aden
erfuer
ip
demols
schafen
technolog
catherine
##unchmol
reicht
metall
jerem
ds
selleche
bedeelegt
jorhonnert
familien
jennifer
instruktioun
heute
souveran
bul
equipage
braicht
highlight
enregist
sougenannt
ensemble
fluchhafen
impf
aarbechtsplazen
ierf
verschieden
baib
errei
verwaltungsrot
##ilisatioun
##verbuet
ihrer
foire
##brauch
##berecht
elite
carlos
##losegkeet
##lueden
dos
verkeefer
logo
federatioun
ky
virwat
effet
justizminister
chi
##gi
ron
##paart
deiereschutz
problematik
scol
keeft
ugeschwat
##enius
gewollt
gestion
beso
prince
offen
hyg
##98
buergermeescht
##igner
therm
##result
musikalesch
ueleg
gebuertsdagskanner
deutschland
gesetzprojet
klassen
gewaart
bartol
##wech
demno
mona
opgew
##eileg
bestiet
##kamera
scheffer
faz
streik
verdingen
natiounen
annerst
document
ausgest
gewiesselt
##wart
besicht
##´le
kenger
erschoss
meg
arbescht
##entes
dohi
suerge
staatss
eval
mud
bezuele
haett
##angs
reliounen
##pes
exercice
house
installeiert
offiziellen
lucien
##inst
isabelle
erauskommen
jidereen
fellement
faillite
konzent
##haut
repr
gene
andere
deal
knupp
vanessa
##weiert
brun
140
cec
visitt
vereffentlecht
##skris
accomp
mois
iwwreg
io
##clus
fok
equippen
schatzen
steiere
weiderentwecklung
cot
gehal
eva
zeen
spideeler
kommand
meckeren
##fonnt
christine
##orie
brass
##aker
eenzelheet
apl
##ierte
##bas
surfa
##immer
acca¨s
iwwerliewen
##schau
generale
finanzen
gittarist
uechterall
freien
partir
intent
##illot
marathon
lafe
generatiounen
kass
##cus
##gesicht
##ield
brav
mierken
handelen
richteger
##inck
dav
dabei
steven
environnement
reiser
mae
gill
gewiicht
acl
bussen
##uropa
zug
crit
##ierzt
geklaert
reegel
liver
nommen
pod
##ay
##cien
fondatioun
turmes
nicole
alice
zirkus
botter
klierf
stiechen
##felt
##gefuerdert
verbidden
##ep
##ext
##weng
schouljoer
zoustannege
tonnen
avoir
psychologin
##eckelt
zouginn
##firma
frendlech
gout
gelaaf
number
##lesch
iwwerst
baby
abeissen
europadeputeiert
##belt
##phon
monument
renomm
##gets
##spriechend
##bard
erausgraifen
##frenn
studien
container
want
##laascht
hautdes
exklusiv
verlaf
stechwuert
got
##96
simp
weib
schueden
juristesch
etud
##aliste
thier
auserneen
antonio
litt
ausgebaut
lydia
ecole
##utzt
1973
klickt
fieder
aid
##egten
1964
konditioun
selektioun
fus
prinzessin
##cle
schlechter
ursaach
##faart
ingredi
##sta¼
gefeelt
geleckt
parten
folgen
kapell
wenscht
fantast
erauss
wesentlech
exemp
identif
onrou
pardon
##uk
##wal
ennerschreiwen
lieserbreiwer
##fia
emsou
mettesstonn
hong
fortbeweg
teschefall
ihren
##staaten
##erson
hehe
thill
schneiden
entretemps
##belleg
plaaz
roland
##metteg
stamm
aplaz
##ichtlech
horiz
salarie
##ideiert
##abis
trauen
information
##leicht
schleit
##anzlerin
tourist
waarmhaerzeg
##fot
1978
##name
##erdange
teschend
##zug
##geshaff
mutsch
wolz
rmg
fasz
angeb
bezuel
##aiteg
ierpeldeng
##hinn
eroof
sursis
verlangerung
lann
##ippt
creche
encad
virbild
schlemmer
education
deid
behalen
frech
beiden
##glecht
fuerderen
alexandra
##kin
effentleche
stage
know
geliwwert
##enkel
consider
##sea
bewunnen
##kels
gio
ty
##yah
##ller
justice
freie
jay
allenenn
bit
##pat
anten
explos
erausfonnt
ouverte
##¼rger
kuel
krecke
##emberen
##a¨me
##bunn
luxex
kraft
bijou
##linge
schwamm
camille
soubal
##bber
groussregioun
neue
##uedem
statistik
oa
onbedingt
klar
monarchie
memb
##ental
livest
accueil
##awer
##raten
brenge
trellen
##spartner
alzette
buurschter
##itioune
beweisen
##cch
aussiicht
neies
eau
buerschter
falschen
wiirklech
##ienz
wessenschaftlech
auswiel
demarche
gemeinde
tippt
dretter
hals
batt
##sseg
blodsinn
interessen
ennerstraicht
grondsteier
engleschen
verzicht
volet
##eise
frais
montant
spass
fact
ral
##piller
aerdeg
##57
glad
damm
interet
rodrig
jiddefalls
quot
staarke
##verd
erausbruecht
realistesch
##trett
immun
portrait
##goe
method
polfer
brig
##scheed
brenn
fluchtling
maert
ausgeb
##izin
nationalspiller
gle
opmaachen
reckstand
parlamentar
virschreft
##zelen
zesummesp
##sichteg
##inens
verreck
nichts
1966
ray
##uewe
belaascht
bespriechung
nott
##aldirekt
nationalfeierdag
piz
##ried
jal
##etsch
gewarnt
inspireiert
##ceieren
positiven
stutt
zwesch
beiwen
ofzesch
##aliseiert
verdu
souwiesou
tony
bron
##56
innen
fast
logik
rubrik
entlooss
frang
baulechkeet
obligatoresch
1968
didier
deia
beno
##93
korrig
viva
gehaat
mort
genoss
atert
sellechen
volleyball
##itim
spd
alters
ernimmt
endeffekt
kescht
gestach
##lunge
donne
steesel
verantwortlech
touch
fortbewegungsmettel
##ope
zemmer
wielerstemm
kathoulesch
next
ausgeschwat
##ikopter
90er
##ueller
gewunnt
bestseller
##brid
ey
avion
telee
enners
60er
eenzelne
hansen
thierry
krise
tap
wuar
##inf
homosex
derh
##ierten
##other
ay
##daf
##edy
bos
eliz
livestream
##anlag
existenz
##ause
draus
pi
##ford
entwecklungs
olympesche
bartolomeo
ziteiert
vereffentlechung
drawunnen
verspriechen
ci
siegeieren
staatsb
kollabor
knued
##igin
entweckelen
espoir
hamburg
##egungen
##partner
ducal
schalke
tdf
##ierwen
##uz
verstoppen
##oli
souten
damit
poly
fonctionneiert
##krees
plusglech
##ipen
mov
reaktiounen
wahlrecht
grenze
##hem
versammlung
gross
biir
naz
##asie
##moine
fa¼hrerschain
begreisst
gemeis
##aser
hardware
hett
##hard
##egend
##cm
enges
iwwerreecht
liese
##jah
##ikter
march
magazin
evenement
ade
##81
beck
tein
##fred
opgefuerdert
stay
bensin
##det
divisioun
collaborateur
nice
golden
interesse
beweegung
##dam
ofst
ofgeholl
prost
must
kommissiounspresident
##arn
dement
allez
##ami
niewend
1967
universiteit
##cement
##embl
eelefmeter
fum
##kuer
kaiser
seiss
geift
medi
waarde
liverpool
fisch
##aterial
bedenkt
iwwerschw
ausgeschafft
fanken
korrupt
##zep
gefeier
bestrooft
eigen
waass
verfa¼gung
wiertschaft
##itude
##stoffer
##alia
virdeel
attackeiert
indem
kilo
dramatesch
94
unerkannt
##ugen
remar
##iegel
spetzekandidat
##merie
uewe
##iges
crise
##produktioun
##83
##oute
dvd
professionell
konzentreiert
##utscht
handicap
onofhangeg
kaarten
gesitt
org
seront
fiels
##heater
ellen
majerus
ouverture
pia
##icip
##insel
lauren
haushalt
##range
joergank
nationalt
##vite
moderatioun
motivatioun
##irt
jonglenster
braz
intera
sprech
oueren
##aners
infrastrukturen
anderen
##lock
verfassungs
erkennen
buck
patrimoine
beige
veirel
orch
steiergelder
fabrik
konstrueieren
bok
tess
integreiert
emfeld
famillen
langt
conter
conserv
stroos
radios
behin
europeen
vermeiden
remeleng
##eiger
vergangen
helen
wars
kredit
farten
##dann
stabil
##icat
huel
mittal
##raut
landchen
contador
##reen
gemaat
##maschinn
bsp
musical
##under
dermat
feu
favorit
gehalt
heemlech
chaos
##ends
bauss
##gehal
##53
quell
beschriwwen
bock
monner
naja
koln
ommer
letzeburger
aplangen
marx
benn
tt
1971
ausbleck
renseign
##qual
verschwannen
##ello
##rappen
commerci
onst
verbreet
wollef
drenkwaasser
menz
scheld
##ollegt
aktiviteite
his
pib
sven
##itatioun
##eft
disziplin
##hme
eischtens
1950
##kot
##papp
verbraucher
##iede
offic
krichs
chic
breed
##atar
sparen
offens
sekonn
schma
diesch
blat
##flesseg
##atique
drep
##stum
##moien
reimech
##engend
chel
karl
hanne
##sschwaach
##bla
iwwerdroen
kiermes
bestemmte
ef
lassen
revendiqu
jug
staerkt
rech
gelengt
noet
##agog
rud
bleist
reliouns
begraifen
restri
cerc
lyon
sommet
unterrecht
opzehuelen
ukommen
ofgesinn
kate
##schi
##ollen
biwer
angeles
helm
fazit
actrice
cahen
##endes
baach
enquete
sicher
spezialiseiert
biw
chreschtlech
zelt
geka
gesechert
subvent
##rai
##ieurs
dame
minoriteit
##ampft
maximum
##sprech
fifa
##werf
beispiel
##lem
embed
##allemand
##ikatiounen
orth
wahlkampf
jidfereen
##trieden
noutwend
pse
##date
##ock
klot
benutz
deja
brill
bounew
seil
##macher
flasch
referenz
hud
miguel
derhannert
bianca
judic
##yton
stung
##gers
erziel
##ammer
##uspro
panorama
erzielen
provisor
acteuren
declar
holtz
schicksal
##reppelt
malad
ideen
vacc
infektiounen
changementer
##gutt
infoen
##atrice
driwer
ausgoen
drast
sandweiler
statistiken
erstaunlech
##bidden
##73
kremer
organisatiounen
gaasper
milliarde
opd
alors
knuedler
##asy
sujeten
heit
lud
vere
joo
organisation
##aster
letzebuergescht
williams
grenad
toleranz
performance
##trait
barack
##ronn
##riar
mackeg
reli
##eminist
integral
nationaler
botschaft
##mond
carole
ekonomesch
stengef
##haal
deifferdenger
##ira
tipptopp
finanzplaz
wellensschwaach
dell
kommerz
zeitungen
1972
##gefrot
transform
gerechtegkeet
hapt
leisungen
jessica
eenheet
##how
zentralbank
zemools
tuer
##bor
proposeieren
bing
##ush
strecken
grill
bret
900
##gg
##a¨ne
shar
bureau
##quin
##rennen
##fouer
matgemaach
relatiounen
magas
##plan
contain
##lait
##ullt
selekt
aktion
##aneschen
##steen
jeweil
##west
masse
##inten
##dikt
ufaerdeg
duerften
besenius
##mon
##wiesen
saudi
winter
entspriechend
emgedreint
getigerte
##bc
##anzeg
schummen
verwaltungsgeriicht
denke
##vu
gezeechent
mudder
zoe
liss
besoin
road
scheller
##ingscht
break
annerstetzung
##foto
formid
##enduerf
##ingu
kooperatioun
giess
anth
bevolkerung
budgets
##verg
##spillt
edition
virdeeler
staatschef
giovann
valer
wolter
zusch
bail
akaf
pelz
##ufen
##anch
berecht
etappe
##xx
eister
zesummenh
ausnahm
historiker
##bicher
blanc
##468
mouvement
beispillsweis
##ilen
blockeiert
brad
##unes
spigel
##dengschter
tutorial
management
##rand
jonktem
innerhalb
gesprach
dit
decouv
verkeeft
free
verloscht
faert
##alisatioun
##bul
rang
##champ
##klassement
liewensqualiteit
muster
reklamm
petange
ugefaange
drotiesel
eid
##heicht
velosfuerer
aleng
bescher
##´te
aufgaben
attraktiv
zeechner
##deut
budd
wunnengs
period
ents
peters
maillot
giovanni
fang
jou
jans
bloen
banke
oppen
1945
ryan
##antweren
cred
fellen
nep
kulturell
hautdesdaags
noze
phan
##ecte
ustr
hinn
##geschaft
geigeniwwer
##esystem
elena
steierrad
virfall
##wahr
shopping
##reifen
##mensch
kriibskrank
##ots
##licher
intens
##fraiheet
stuttgart
jeeweil
damian
unzefanken
kalifornien
hospital
elwen
taille
stop
eli
promin
verstaan
leo
##musee
sax
oa¹
seren
object
drabrennen
generaldirekt
##ousse
1965
ermei
spectateuren
gesetzlech
iwerze
annonce
arbed
aisallemand
gig
para
meeschterschaft
rechent
##egelt
cannabis
mudam
eicht
cercle
historesch
##quen
haute
170
rembours
##istik
benevol
eesch
dl
##page
##leist
##eschtert
habe
fortschrett
##eind
if
mena
kollektioun
villmols
zomm
erm
niwwel
citroen
astero
zeechnungen
2021
projekt
contern
saar
ofze
sekret
privil
entrepren
##yd
serien
optioun
##istes
ofstemmen
mille
##useieren
##ables
minimal
##aucht
jim
##inson
##stat
krimi
stur
raym
##agon
relax
krafteg
dup
ufaerdegung
gras
spuenesch
ronnen
kroat
leidenschaft
gelant
##gewalt
bricher
ba¼rger
echtern
filet
irgendwann
hetzt
gesongen
zanterhier
aventure
##lyn
mia
##real
avait
##51
##eschmillen
minett
indirekt
beuspro
zaitschreft
recetten
tubak
##erer
gabr
doraus
juillet
##ox
pseud
matmaachen
bestallt
platzen
##board
porsche
keis
traite
erfahrungen
##klo
##fam
adal
appre
visiteuren
dieschbourg
##fach
labber
boden
galerie
verdeng
ageb
einfachen
ausgeg
makro
frau
tres
versengen
auszeginn
elef
schueber
secheren
baid
kenns
##fabrik
verantwortlechkeet
princip
rapha
onge
entrevue
seiner
##tzen
simpl
##sson
unzuel
grennung
educatioun
individuell
konzentreieren
leverk
wikip
aha
##mas
##ancy
zweetens
konstruktiv
chelsea
botz
konklus
conten
girl
philosoph
vende
prec
wiesselt
spur
duel
landeshaaptstad
clients
relieis
##ologique
gezu
konstant
exzellent
east
geleet
jugendlechen
##uerdnung
urspr
strossen
gedeelt
ausserung
autobunnen
domad
serieis
josee
klinick
maitre
tok
faut
ennerhuelen
ward
marg
parti
stroossbuerg
temperature
tant
##yers
##frana
##reffen
staerk
positive
alexander
##leef
ig
puss
opel
betrag
auslannesch
mailand
aist
revenu
virgin
naiv
reflex
agedroen
iwwerzeegen
piano
##aan
emgerechent
ammer
neid
donc
isabel
treff
fue
renten
alleb
kada
##74
##hur
##emens
fred
hellegen
##ansvun
gehalter
technologie
##andauernd
jacobs
polem
lea
lisa
ra¨
beschof
py
##conc
chat
##ositioun
##reis
fox
alternativen
warm
zivilisatioun
wikipedia
pascal
kanal
johny
lanscht
mersch
look
##russ
harmonie
##lings
gasper
herz
schueberfouer
neimillen
juin
fabri
besichen
heft
heng
wasch
##verain
##course
gesondheetsminister
ausgedreckt
##aalt
laun
intelligent
barriere
conseiller
##emlech
gira
alpes
affaires
tendenz
dora
##waarden
##verbrauch
vos
##uben
schnapp
scout
circuit
etwas
zeiten
higewisen
##eback
onzef
donneschdes
hollande
wild
##ssend
##erne
blue
defaite
honnerte
ihnen
philosophie
gefaalen
opzer
##dokter
offizeier
##illaume
cet
haaptroll
anan
##uern
##ctor
christophe
baitrag
##unde
echangeur
##gewiicht
colmar
schwieregkeeten
rodange
radikal
oliver
wiele
##imer
rose
rund
##chte
##esta
topografesch
otem
baige
##54
emzesetzen
blumm
ca´te
kemp
##iteite
eldo
krankheeten
kriibs
fried
##enzie
blummen
##ettes
ukennt
hellege
beweegt
past
passeieren
allebeid
fis
113
##rt
##iro
lucas
american
quadrat
5000
##kelen
revue
sog
bedauert
pensiounen
cra¨
ausgeleist
erwuessener
etre
##ullen
heck
gedroen
##ythmus
waitem
meedche
hechstens
gilbert
kg
rakeit
##ktioune
ausdrecklech
jeeer
##maach
##aliteiten
buffen
traut
##leisung
cote
meill
unsere
lissab
ratsel
proff
bessche
zeremonie
grondschoul
mettelmier
lewis
archiv
italienesch
prise
##dreit
young
##jein
zoll
##esst
kranken
verwaltung
she
hanke
take
bewaert
standpunkt
gebuertsdagskand
sondage
abtei
equil
lockdown
gestalt
##wwelen
speziellen
spekul
clos
cer
kontrolleieren
professioun
##leich
gewenn
##rankt
krankt
clint
##unterrecht
fachmann
zal
franky
daniela
weng
parteie
gewierscht
##wain
presum
attacken
cycle
garanteieren
commiss
##ibb
1963
closener
scharf
konfronteiert
##84
lager
laure
##eknapp
nathan
guillaume
##itee
##ebe
rosa
gaston
eing
neuen
##faalen
feststellen
symptomer
impos
novoll
##uchten
ziler
audrey
kant
journee
fois
set
himm
rouder
moll
##alite
armen
bezw
schmelz
irgendwei
merc
##weises
misere
over
##daermoossen
##64
bestellen
##aa®
##quem
leifsten
tratt
riichten
##ender
aussprooch
traff
tournee
asien
cliente
spetze
##agua
##frei
##ebild
steierreform
##stallchen
aliment
##uerwe
virg
moler
ungarn
##uechten
##oter
zweifel
ba¼hn
great
lucia
##kons
##ween
##omet
##enzo
##vision
banner
##werfen
aanere
frup
konsequenze
##94
##enzt
gedold
mobile
wr
taxi
burger
spar
wahle
ewald
kierz
beweiser
olivier
maz
dirig
##grad
aerem
letzeburg
kartheiser
amts
lafstallchen
reis
hmm
##play
kandidate
erauskennt
scen
fortschecke
##iliseieren
essent
zaitfueren
wow
moyen
cass
onwieder
legitim
bey
##degkeet
klaren
menschlech
mang
##kultur
constat
bestategt
betraffe
luxembourgeoisfrana
nammlech
##hon
mission
observatoire
travaux
carter
formen
voila
culture
##nuecht
reuss
ton
dazu
##ckenzie
guiden
iwwerr
##ka¼n
kloert
flamm
suess
fann
haal
##lager
sportlech
geft
handlung
meschung
gendarmerie
model
zuschauer
##mooss
mathias
ausserhalb
giro
kuken
bettembourg
lui
sebastian
mario
samu
##eirung
ersatz
interaªt
##sapp
wiisst
allgemengheet
##ittal
##demok
hex
zougelaaf
geste
##gefill
##can
nationaltrainer
##asst
poursu
santos
besat
nammen
laascht
karriar
zesummenhang
kollege
felder
ngc
##illon
##krit
dekor
lieweg
##flunn
ermeiglecht
ubruecht
instrumenter
afghanistan
frot
##gie
##´me
zouge
kuerzfristeg
konservativ
ingenieur
butt
misch
jours
kapitan
emstridden
##pell
##strof
##gaben
iewer
riley
##omat
jax
export
atat
gefo
3000
charme
administratioun
opruff
jeder
iwwerfall
relais
doudegen
anerersaits
parf
gestrach
entreprises
email
chal
photoen
areler
fwd
ofhangeg
labor
jens
schall
nofolger
##ausbleck
kompetitioun
zweiwel
dudelange
zeim
ennersicht
besetz
zoutrauen
staamt
ingredients
nap
erhalen
allereischt
briteschen
##gegraff
##aug
silva
leverkusen
##svert
##faangen
neieren
##essioun
##sber
maa®
resume
buergermeeschtesch
##setzung
schutzen
##personn
##zemmer
##uppt
##hiewen
schiltz
nolauschteren
rouh
##ktion
beach
synt
griechenland
opzebauen
iwwergang
sak
katastrop
oppos
entdecken
personne
behind
jeng
annerung
mcc
##wiss
besetzer
##otel
suguer
seul
##kompet
botzen
teit
verweck
analy
reserveiert
##ylan
haupt
staatssekretar
##elbuer
aistraich
bezierk
melod
aarbescht
schung
alternative
##arth
lep
parole
phar
programmer
klemm
dichteg
##kehr
kemmert
italienesche
wanderen
tem
reserve
##iech
##zet
##atore
erlaben
##sparteien
erfreieren
froo
beschreift
hippert
##halie
dohanner
frupsen
market
##fang
##vant
vereenegt
avery
##a¨res
angela
rosen
jidfer
##rine
eru
marseille
sar
arab
##gio
##itch
##zeitung
korrigeieren
ske
##tours
##egte
exped
schok
respon
protester
dreckt
seiersten
communauteit
##cont
##gs
laangem
gekampft
##lecken
erspueren
##izen
##asyl
medizin
dausenden
nogefrot
pub
sit
ausgestallt
beroder
besigen
sangen
offizieller
university
aerz
comeback
entspriechen
##oure
##abene
##ally
bundesstaat
##kirch
weem
##shi
optretter
ponts
offreiert
3d
detaill
briechen
volont
annees
cinvite
frustr
ausn
asatz
##stelle
befaasst
how
##versecherung
neutral
spriecher
waasserausbleck
meteoro
vleicht
pole
##strong
jard
liberal
##ieb
wahn
gripp
verbrannt
lutte
125
tabl
##ichtung
auszesch
schatz
##onditiounen
falsche
garcia
paie
mary
stellung
annerungen
duerchbroch
femmes
matzen
klinzeg
##ologen
fensteren
##ogan
baihellefen
entdeck
##efest
kompetitiv
gerappt
aalt
regul
kathed
zensen
data
velosp
wierkung
luxairtours
harmon
fale
ener
##bn
##elung
##venir
weltmeeschterschaft
lissabon
fed
##uddel
chatten
##ulpt
ka¼
kennegen
patronen
erginn
dumm
plo
cannes
gesetzbuch
dossieren
aspekt
lambert
trimester
##fc
entscheet
bereich
avantage
numer
piratepartei
bulgar
tutorials
wierts
geneissen
kich
koume
cadrage
workshop
salut
epre
ennergang
explikatioun
commande
##prozess
kees
voir
niklos
crist
##eskop
duerstellen
contact
elimineiert
##bett
##vb
##esien
schweieren
amst
##eing
funk
monaco
##rim
##otti
regelrecht
##wahlrecht
##lais
bonn
jak
##weeer
##ivt
gehale
bereits
strand
##uwen
##ba¼
arcelorm
trick
##emperatur
##eminista¨re
emgoen
ugegraff
methoden
kierfecht
gru
racks
savoir
prag
trapp
sortie
dosen
lieserbreif
roch
amateur
##iesser
bezwengen
naass
ort
kolum
existeiert
wind
##ypt
eto
fru
##ualiteit
aspir
##bare
entschellegt
episod
geingt
##helm
##rale
##jours
style
diplomat
##hase
ange
lebens
iwwerwaach
medec
grimm
kontakter
anonym
graad
weideres
gemittlech
##hor
##alle
ausgeschloss
judiciaire
opl
##droe
##gebidder
zahl
entwick
raicht
cade
mutter
surface
schlessel
##eldange
guide
spreng
sigen
neiwahlen
viviane
adapteiert
permett
##ple
##leed
vehikel
##eitz
bezue
awards
##schungs
ames
times
halleffinale
##ßen
funktioneieren
brutal
amgaangen
##utschen
echapp
ersetzen
uertschaften
##biller
ausleeen
##mir
spiegel
da´
erun
##heets
##unioun
##ortun
beeforter
wielt
##numm
jalous
echternach
signal
lengt
##haha
mettelen
##gemeng
aerer
projets
uel
##blen
liewes
beschiedegt
interessante
pag
appell
conna
negoci
##ogramm
stull
schwetzt
meenungs
modernen
##anescher
##idt
geschloe
omin
2x
moossen
verbuede
topeg
donneee
ticket
grie
software
carrement
heart
ergo
nobel
vizepresident
schreif
liewensgef
##aschten
valent
emir
antwer
mosar
arrang
##eierungs
##idenz
gewa
bands
article
drama
ama
jones
##atre
norwegen
##oba
arcelormittal
schwach
gengen
versecherung
hinter
##holz
geschlecht
frage
orchester
patten
categories
beisen
##minger
mainz
kub
ereicht
sousa
zougank
versprecht
##ification
##jon
##queline
reckbleck
verteidegt
ausschnett
reduzeieren
##onden
backer
internetsait
nerd
##np
programme
wetten
buedbidden
##ego
unif
braun
##esca
karen
tonn
##vous
##anlagen
gemaacht
pruf
wiren
##hmer
opweises
fraa
freierer
erheijung
sachlech
zuka¼n
##dass
albummen
cook
bouneweg
kolleeg
##shall
focus
besonder
eranz
johnny
membres
ster
##utes
arrog
##ragt
sauber
##ination
hannerten
stefan
##erman
trier
effentlechkeet
living
eiere
virsprong
erfol
kayl
klemmes
deeer
reprocheiert
erfaassen
heichpunkt
halb
vleit
##chef
disney
hr
kuk
batterie
##ra¼ck
bestemmen
wiv
##bels
etik
fester
owen
##estanneg
depos
head
cdu
schant
##apparat
bekampfen
absoluten
aiseg
nowuess
##sparen
chaque
fotos
musique
beglee
chin
jorelaang
schreiwe
municip
##war
##ssp
gees
nathalie
brown
jiddfereen
equippe
strikt
matia¨re
duelem
1940
ettelbrecker
flecken
hektar
pok
trag
heijer
##ofen
opgrond
erauszefannen
bommen
klimaschutz
ple
opbau
kalkulatioun
about
manu
kommenteieren
##ders
##partite
horror
raymond
paf
uso
##pert
##uft
berechent
mainten
rassismus
##hus
##zekucken
fenne
deiselwecht
krist
##ierm
status
rhein
school
food
##dl
##stag
##ternacher
ausgefall
reimer
##ront
##becher
##anden
laangfristeg
freak
kritiken
supplement
schro
internetsite
remer
bow
camer
parlement
freis
dipp
bilden
pengn
##uses
kockel
festgeluecht
menu
dura
release
intentioun
##rieren
ermeiglech
##nahme
fotografieen
annerhall
##gu
schoulstonn
slowa
schloen
##hnung
sebastien
##cycl
##kelt
notabene
englescher
grenner
erausfuerderung
manche
evalu
denkm
demnachst
bedengt
homepage
daiwel
losch
##anja
##edie
christus
photoshop
entstinn
##just
##ra¼
##otic
veloss
keimen
kittchen
duergoen
prez
akzepteiert
dorobber
hueschtert
shop
##abelen
fitness
santer
gesang
rhythmus
misstt
##shal
##lenger
##fu
dohier
erfellen
russesche
marion
salaries
vent
waerm
blud
toujours
lenster
hip
little
agen
fleege
helminger
bol
##esc
geloss
doran
zesummespueren
1er
##eschem
##ession
droge
spektakular
##dig
##derich
lull
##degen
meenungen
##stonnen
diekirch
661
autoriteite
held
##etra
cyclissem
auslei
##tex
andreck
eisterraich
##athlet
folk
gran
##achim
##weist
einfache
litter
perseinleche
##retten
famillje
letzten
leschteg
ausgesat
sengt
theoretesch
beischt
##menschen
staff
deierenasyl
seni
liwweren
##edi
truppen
fraist
doku
##ingungen
##cr
##cie
##paakt
pneuen
eche
sozialer
changeieren
ausglaich
geschaf
##less
emstann
plateau
selten
aarbechtsk
dream
##escherweis
tomm
utilisations
dylan
##ray
##med
##erdam
satur
fraktiounschef
carl
bewegen
mog
iwwerwa
umellen
joachim
teen
prison
##gescheckt
etape
titelen
hollerich
wenz
##ssteier
veranstalten
phanomen
sauvet
##afrika
websait
##72
bestued
##grenz
barthel
automobilisten
hallo
menscherecht
leiwe
##gemein
heiren
bich
matgeholl
lydie
iwwerdriwwen
##linster
chausse
slowen
einmal
annuleiert
##obre
##ypten
wolfsburg
##egem
terrainen
septembre
camionen
eichter
belount
petingen
bestietnes
garde
##veiert
ausweis
exter
##ipt
##blei
##geheim
privileg
ring
steit
produits
2ten
##ely
concl
##heimer
award
stengefort
amsterdam
##frendlech
62468
dance
blend
##kee
esouwuel
reforme
engems
reveier
deement
##immen
eeer
handwierker
becca
##filmer
sylvie
baif
uefa
##iichtlech
verweckelt
dreien
##icule
materi
fuert
scheed
immobilie
excellent
cath
##eeee
befr
##adel
mt
##istar
interd
mexiko
depress
belschen
eisleck
regl
toilette
ongen
##ondel
harr
corinne
kafe
appreci
ott
noge
geloos
massen
##bola
mesures
##virg
kompetent
hannendru
legislatur
vakanzen
##la¨
weiler
##regen
potential
opwand
spezifesch
bruno
zen
leip
benefice
ticketen
lis
##journ
##62
myster
illeg
bung
##ouk
##schloss
getreppelt
benefic
effort
werfen
##hond
aly
luer
agoen
projete
fourn
rd
wanterp
adresse
diktatur
iwwerschwemm
atp
olympesch
rid
ran
salv
verschwen
aarbechte
##code
opportun
##eent
begeeschterung
horizont
seiten
zeechent
bremen
sportsplaz
irgende
chor
beschreiwen
forme
uerdentlech
usproch
reuland
##ufank
ranking
poll
dorems
emstand
auswee
charlie
##aken
poul
##elder
##echte
ard
katastroph
zigaretten
##hinner
clinton
##arder
made
auswierk
ausgaben
onschelleg
oo
##cs
katalog
verantwortungs
ongeweinlech
octobre
ofgestemmt
##shaus
##andy
wivill
koch
diesen
clim
##rukture
netzwierker
monetar
qualite
##autoen
han
verkeiers
##problemer
kunst
komplette
##ionneieren
cloche
catten
roden
trikot
sauvetage
resum
stre
behandlung
franck
##spolit
ajou
evak
##ia¨me
##hes
regiounen
vergewalt
virgesch
mist
except
viet
##kontroll
geplangten
##hers
##born
verstopp
step
##fica
##walen
entfern
double
##losst
##streck
gebueden
vulner
wiertshaus
duurch
werner
os
presentatioun
piste
##geot
iechternacher
hechste
graph
simone
disponibel
##gelooss
##schloen
giber
flamen
arabesch
##klich
syst
##ritt
richtig
call
##belen
intellekt
teller
##reiden
##200
saarb
organisateuren
pekuni
steierer
veranneren
lenert
gad
dena
##artz
kommenteiert
##licht
abstra
bond
trin
##rr
ugestouss
verkier
##lux
emma
milit
gefaangen
opgeschloss
f1
lun
##finement
schweiere
##feelen
verschaffen
##vais
##gesprach
fla¼chtling
astellung
stone
chaussees
##oine
verbesserung
##eiers
schell
seinen
prisongsst
vatik
##gett
versuergt
musikal
statioun
athl
netto
finanziellen
gaga
teppech
##alem
##agt
staus
liewt
aspekter
pekuniar
gema
connect
ennenof
wellness
##igne
brecht
##onso
iii
surv
##egkeete
gestouss
vollkommen
armstrong
aere
##orden
libra
opreegung
bang
bistum
gestalten
##radio
cattenom
##butte
fotogra
weisou
##dim
partien
1962
auszuch
schoule
luxexpo
foul
lannen
coiff
revendiqueiert
medikament
neng
haup
zaitchen
agric
slogan
debatteieren
finnland
containeren
perseinlechen
episoden
reegelmeisseg
olympia
nuetsop
messbrauch
impression
##resultat
##athl
kuerze
beruffer
verluecht
fonctionnement
##alz
ava
faarweg
arl
marken
gor
##king
dial
studeieren
cafeen
pizza
##erdang
salon
faber
phas
apparater
##azen
##egungs
julia
capac
genaus
##editions
fiction
dany
goeb
horesca
##verkaf
##inea
mengs
publiciteit
mache
##entlechkeet
verstees
krescht
##hir
selon
ney
armut
##aumt
##vunner
doru
leefer
zopp
##ussia
gefellt
gelascht
victoria
ressourcen
virdr
heiansvun
kategorien
podcast
responsa
european
syndicat
##cross
decker
105
millionen
phen
sonnenop
buff
raison
plazeweis
##rieche
##ruct
passend
reporter
##helt
guddem
syn
aasselbur
sitz
##lan
states
diam
haerzlech
spezialisten
berouegt
iwerhapt
##gelaaf
##fre
##skammer
bewosstsinn
fd
provozeiert
##a¯
filmkamera
kapitel
russen
##uil
elvis
bera¼
sude
##zehalen
trio
fundamental
flou
##ilmt
1944
duerchsiichteg
dt
dm
benutzer
ennerholl
kromm
##nairen
##track
1961
clever
##fig
##82
marshall
beschen
##saat
jaune
##ereg
lapt
onbe
matthe
geplangte
moss
designer
verbannen
##zepter
##glas
##dere
ba¼ro
dal
ausnam
vergies
##punkten
leiere
pt
denis
geplennert
angels
##row
##uergung
erheicht
adol
moselle
##peace
##uc
bran
groussaarteg
nature
julie
astr
dn
##initi
ausbr
contest
##bewosst
##gereecht
##wellen
##schoss
##aps
offensiv
peugeot
generaldirekter
ouschter
##keess
amy
fah
352
ofstemmung
particul
cela
irr
demonstratioun
elisabeth
movistar
##52
##elux
stopp
exec
virsaz
fraien
fehlen
run
##sident
arthur
##eigen
daper
welter
transparent
nemen
##fraum
##uge
analyseieren
cito
##ehmen
constitutioun
brutt
interven
alldeeg
##straichen
krom
##haischen
fuerderung
##strait
gess
decembre
rifft
hannerlooss
funktion
prepareieren
palastinens
dernier
maurice
kloteren
glich
##welen
aur
rau
##pak
divis
quintana
##wierkend
##same
##92
romant
aentwert
etoile
freck
##rus
##joint
hechsten
verbrengen
##mme
##felen
christopher
homme
##nungs
netzlech
lentz
zoo
##icatioun
auszoch
kollaboratioun
##wunn
##a¨ge
##waerter
leeschtungen
zemmeren
fangeren
anzesch
iwwersat
themat
calvin
pharma
busch
##idien
ausgeet
intelligen
hui
justin
benfica
emissiounen
##apel
kierchef
osw
1500
schroe
alan
meigel
schwanz
glacis
zir
emsetzen
differdange
vign
sprooche
bush
baam
##bahn
bessere
grenger
busser
lounen
quatsch
participatioun
monnerech
##kn
##ademie
laura
amelior
weiderhi
hees
##iewe
##atze
doropshi
ukraine
utop
historesche
psg
stream
selwen
strofraum
deppen
##naamen
duerchgefouert
meyer
administrative
kathoulescher
m2
##iences
soumat
note
kraizung
##rime
fierun
charg
##dir
boite
erdogan
meiglechst
schottland
wouhin
thr
lieder
untersuchungsriichter
##fotoen
##eierungen
myth
##uro
matiere
##estell
scott
gewuess
douce
avril
##ranglescht
informations
henry
banque
physik
salle
##linn
beggen
##quisitioun
heiere
##cre
biereng
affekoten
##igi
##eken
gewunn
direkten
soutien
dieter
keess
notz
jules
pedro
##achel
blouf
responsable
qatar
veroff
betruecht
andreas
##alie
regierungschef
rieder
rinck
extr
##abiliteit
investitioun
daum
blut
memberlanner
ultra
doniewent
haltung
lotus
recyc
smith
collection
edaermoossen
gau
julien
autoritar
demonstreieren
katastrof
grenadinnen
virgehait
##icien
##spelt
terme
##elo
duerfen
##imp
gary
bedreiwen
juste
ecart
standplaz
eegestanneg
ma¼ller
ophuelen
##umin
letzebuergescher
absur
activites
greenpeace
etikett
amus
federation
cause
danzen
fuhren
wilhelm
bong
neisten
principe
##bit
duerchern
white
vietnam
upassen
chreschtmaart
kid
##field
optrag
junglinster
kathol
rued
##pack
mangel
sno
##heck
passage
qualifying
meme
##uerch
frag
##sbruck
arcelor
opgeleist
ausfluch
hafen
##ogne
##gewielt
ausbezuelt
neierlag
##onomie
regierungsrot
habit
##aaaaaaaa
nof
baiz
court
daags
onzefridden
noen
schluecht
uergel
gronn
groussem
schmuel
##ferenzen
wilmes
aassel
qualit
##sprit
plusieurs
reckwierkend
##umer
chez
##a¼ber
entfernung
diag
##zius
studente
luca
skept
freder
elektresch
wonder
##¢t
gefillt
optimistesch
##bee
##rigens
##reiwer
nokucken
nuit
ert
funktionneiert
##accident
##enthalt
verbruecht
migratioun
flicht
automat
##sall
munches
##wichteg
finanzkris
##iels
gring
rolling
kemmer
reell
##iente
etappen
750
housen
terroristen
deemolege
licht
##ounge
##wahrscheinlech
ermeiglechen
nancy
##verm
better
cc
##ogo
entstoen
baigedroen
sandra
staarken
##see
ignoreiert
duerstellt
##endag
erausgesicht
institutioun
##sextrem
zougest
mitgl
giberyen
schoulsystem
##liewe
derniewent
kios
monique
kaffis
glewen
jag
##kong
##asioun
ox
##ataire
hoffe
deklareiert
verleisst
##iddert
gefaart
##fla
##arg
souzen
parental
##rike
##saarbecht
theod
iergendwou
astrid
wegen
eta¼
spezi
madonna
pakistan
kieffer
cameron
heed
##oman
##right
##estallt
nadine
make
manst
##wessenschaft
cart
##ops
inviteieren
leedung
fischer
hermes
bieles
staatsbudget
##osse
##beispill
##koum
ugeruff
liqu
frontalier
##rut
kennedy
schwarzen
oswald
##laicht
##versioun
##writer
goetz
##uuuu
##reffer
kandheet
soundtrack
lena
mister
ausger
collier
##stecker
antoine
kathedral
##bil
deckt
traitement
cul
ski
gelder
berger
##brengt
aspirant
##pps
messel
velossport
maul
##anderung
kollektivvertrag
nerven
langue
##scheff
##ils
##gesot
##werkschaft
ugoen
matm
ugefangen
bedaueren
bezilt
tonne
rentree
zumols
aarbechtsmaart
kne
rt
graff
katal
##joers
nidderkuer
##point
dateschutz
alfred
frid
experte
economique
kirchberg
zoum
corps
crois
beusprocht
hert
coordin
panne
augmentatioun
dobausse
##junkt
planzen
unerkennung
##uite
interessanten
clemens
zeihen
claudine
jeanne
milieu
ausbauen
regie
rese
##tres
michelle
valeur
virwetzeg
ss
loost
menac
kroatien
flam
away
od
##wege
kml
transporteiert
aro
dippech
##flix
##uens
fotografeiert
aventuren
##kender
dreiwen
stephanie
raichtum
rumanien
hygien
raim
untersta¼
fokus
doit
ilres
robin
##ennes
##nost
informatiouns
patiente
voteieren
erliewt
zergutt
##ides
theatersteck
schloff
raphael
##miesser
spezialist
##sei
engkeier
south
erliefnes
##bill
kompletten
verzwei
##quat
presence
pensiouns
beur
verbennt
reckgang
erhale
indemn
lount
poln
##skon
mentaliteit
panz
euph
izeg
gewanne
##stud
camping
family
dote
dave
rating
virgoen
bremsen
quelques
luft
##gesond
aarbechtsminister
industri
fusioun
opgetrueden
apres
##usk
there
britescher
arsen
jp
ash
herrscht
billjee
interieur
score
konditioune
rof
##etzten
kirsch
##rin
imag
wore
450
iss
malt
##uffen
##seileg
##kom
##bung
schrott
entstan
encou
##house
##bay
zesummel
emgang
##estemm
kombinatioun
europameeschterschaft
kh
##entlichen
##antel
saatz
duell
weltraum
aneschters
brian
sprangen
definition
billy
##gekuckt
ausstell
blees
##isant
##demech
stativ
##ags
##ictoire
##oust
traditionn
##cale
##eba
they
bedarf
johnson
##hare
##orient
##bestanneg
tessy
edda
willy
##athan
moud
uruffen
identifizeiert
honnertstel
daerfe
hoss
##riff
##fahren
ernest
beaflosst
##lechkeeten
##ouard
##schei
##meyer
harz
giischt
##insfeld
auswaert
classe
dynamik
heb
vendre
auc
##sstand
edward
vatikan
lynn
##strei
schiff
ausmaachen
leipzig
terrorismus
##kle
heigen
klapp
approxim
chiffer
soz
erfar
flammang
##echst
homm
##bia
matdeelen
emm
unheieren
akaafen
freiseng
lulling
after
riesen
suisse
employe
ablecklech
rennen
ops
nuetsopnaamen
kompromess
upass
noteiert
dh
felt
pitt
proced
joffer
drunn
##intgen
reproche
primarschoul
moderner
verstaanen
##eref
sieben
keeser
lopez
thail
effiz
geriichtshaff
migranten
leideleng
jedoch
##pillen
##ata
spillschoul
4000
margar
klor
##jean
lokalen
gemengewahlen
tech
##leesch
##ension
niewen
sug
alberto
fris
bemierkung
##uegt
chir
geigest
##eke
##top
##skeess
clair
klasse
##asseg
draib
delegatioun
zesummenhank
amtszait
##nungen
haas
add
doremmer
spannung
laptop
bausse
##ums
##loscht
expressioun
daf
benj
betraffene
democ
gelidden
risque
enne
##elten
timber
##ipst
##phine
umaachen
erzeiung
ufroen
moralesch
schwangerschaft
proz
musstt
feschbech
##liicht
debutalbum
##isha
netflix
remis
rollinger
##iago
##beg
##oux
##ives
##daucht
diskussioune
iertum
fuedem
verfollegt
sonnenopgang
tragesch
handels
iso
maschinnen
gegraff
marketing
kanzlerin
pink
heisch
agebaut
kirchen
##schlass
regeiert
konsens
reent
##ologeschen
interpreteiert
conclusioun
case
##period
ll
##dra
introdu
fraig
pest
1959
##echnunge
##staan
unique
##sstaat
schockeiert
gif
hd
aujour
##sprojet
unhanger
##respond
raoul
fuerderungen
benzin
##gelen
##reisser
heinen
##welter
inflatioun
laich
soten
arbechter
novembre
libre
fent
##rum
gefreet
minutes
krack
songwriter
blanka
##skaart
virmetteg
iwwerflesseg
##svers
windo
iewescht
##kloer
##zengt
unf
previs
##derunge
bestinn
skla
ofgerappt
kandidatur
saarland
##entgen
beoba
##hagen
zougelooss
krim
crechen
hybrid
rick
artisten
dodr
verstanneg
##eldorf
##immy
ugekuckt
ausnotzen
linnen
porto
chinesesch
deutsche
polemik
deementspriechend
rien
qualifications
beschellegten
zirka
lion
lein
##jh
##rique
kiosk
scheinsten
troun
iwwerhapt
blann
stones
betraffenen
suv
production
wunne
##alisation
##vit
artikele
kriminell
gastronom
erwuessenen
mode
acel
hannover
nidderlag
personnel
uechtert
##court
erlabt
ustellung
##atoren
##arer
freede
##daach
##ikum
soud
muen
passer
produzenten
aper
dato
krie
urte
sougenannter
##enzeg
nordkorea
leidelenger
##para
reuter
refle
ralph
progress
peuvent
obschonns
##weger
republikaner
##hner
sched
klang
esprit
fou
schnuff
fisc
##neiert
kennegel
##ographesch
##elteren
inclus
##imenter
vig
kinnigin
##espelt
gp
##room
dog
jakob
juan
vermettelen
besteht
ronne
helikopter
ugeluecht
##honn
delvaux
negativen
selektioneieren
scheisst
elleng
conservatoire
quick
jaer
fliiger
risch
##uez
hik
potenz
kennegeleiert
##villa
arendt
lange
schank
##ierch
mie
penn
##laaf
josh
praiss
kierchen
##recher
norbert
proport
##onners
grous
sippen
again
irgendwou
##braucht
ela¨
ausgeh
neierens
eim
entr
progr
noj
neel
gereiert
mettelstand
approximativ
benelux
beschaftegen
professionnelle
bbc
##ektive
finanzielle
fonctionnaire
feind
galax
dibbel
auteure
fluchha
ageschriwwen
kritiseieren
taxe
##beschof
dire
muse
##afrik
halsdorf
oppene
kale
geschnidden
schreftlech
miselche
marianne
tam
##weieren
laaf
never
##07
wk
wiederwelt
zwill
##zeug
citatioun
domadden
aura
##arathon
##zedonien
##eministesch
claudia
binsfeld
bronge
iwwerleeungen
tribun
df
kugel
ha´
idea
##elin
##laut
##ango
##smatch
expeditioun
##doen
##eierbar
skulpt
ugeklote
##national
independ
matgespillt
francine
schantjen
vru
tripartite
##wohl
##huele
arraªt
lack
wahnsinn
ursaachen
thriller
speiden
salarieen
hecken
breiwer
##degt
led
generalklassement
a3
zwer
direkte
nordstrooss
##ingend
##wasch
verbonne
sprang
samuel
second
child
##ektor
ttip
a1
lance
dreif
classique
##zerner
geheimnis
fauscht
##03
##etschen
emfroen
wouduerch
##staanen
renfor
preparatioun
zaldot
dc
planz
krass
opgedeelt
noliesen
##enke
dose
veir
marina
erausgestallt
miwwel
##ierfer
dovir
parteipresident
eigentlich
shoot
fayot
madamm
ereff
opgefouert
ausginn
gruef
italieen
##geheimnis
##sin
gedreit
egen
##nehmer
stann
gej
zesummenhalt
hangt
##atri
##ueur
nikon
##denk
##endorf
##odung
deelhuelen
julian
anthony
verschwennt
grammy
kelly
grom
gladbach
soph
alonso
million
##laire
kachen
##mung
##uschen
festiv
sa¼den
sowjet
##hy
##burger
##anal
motocycl
schau
mady
directrice
aujourd
ronal
##rir
organisateur
etudes
stuff
mettre
##anceiert
kommissar
kielen
##isp
etrang
wichtegsten
singap
niewent
ordonn
sure
soiree
##lim
##setz
warnt
spiert
kontrolle
agebrach
wenkel
edouard
croissance
bout
schach
vereedeg
lift
faveur
aarbechtsplaz
rig
##cient
mitch
gebletzt
##andert
helden
civile
letzebo
schulz
verhandelt
tanson
kinnekraich
##anim
stot
##otten
##pton
versechert
##wuer
alo
##spert
korruptioun
formeiert
sao
##dox
gedicht
bvb
schieren
##hai
freiburg
dibbelchen
##anven
zoumaachen
planet
bassist
potentiell
dags
iergendeen
posch
privatsecteur
colon
traineiert
##def
opklarung
gehei
schof
haaptpersonn
kayser
##junktur
##emann
gelauschtert
michele
gh
vil
spuren
sprengt
flughafen
arna
doleiner
weitere
bid
##koll
##ifikatioun
ezb
ofsetzen
##phe
##gespreich
lamperts
insider
tromp
bde
plangen
ennerhalen
##ueleg
horst
tru
operation
idi
besteiert
geben
sees
zemols
bachel
dna
##facht
serbien
##ilia
##deier
##zie
##kaer
##ibs
##meister
techneschen
type
cn
##rechent
##cade
##spraisser
##rigen
arts
quarantan
dera
dreibuch
schrecklech
spektakel
opreegen
cancer
##leichen
eriwwerretten
when
assembl
ugedreckt
austausch
lac
##hing
##ato
tint
##isation
erklarungen
##eling
##roun
carre
deckel
feelgreff
kummer
##izip
renoveiert
gedonners
sandy
ivan
1a
prachteg
sa¼de
##stull
scheinste
jet
oun
puchen
##ieres
ausgaangen
graift
acces
zack
bullet
primitiv
documentaire
pote
gaz
gedu
##ulp
##ifik
##kraft
##aatz
metro
##tzt
##meda
diskut
montre
livre
##vt
##ouschter
chim
acte
waasserbelleg
robbie
csj
dress
getraut
sales
opfalleg
unserer
geier
brell
bonus
due
cia
##famill
systemer
##zekreien
furen
##inge
gesell
aaen
muppen
jeremy
stausei
##eiteg
haischen
formatiounen
##coup
##wers
molda
##ausst
argentinien
##energie
jeden
ella
gleewt
bedeelegen
valen
##ucker
ennerbrach
left
sucht
commissioun
schnett
affentlechkeet
limit
ausen
##bauer
josephine
##verkaaft
##zoustand
##praisser
tiptop
media
objekter
feng
fatz
##uto
schaer
##posten
kleeschen
bestueden
zouloossen
wichtegste
neil
##prof
zesummesch
coureur
heure
zoustann
explosioun
##bis
millions
rendezvous
vielen
konfirm
geregelt
bockel
freedefeier
wust
a4
gesund
supermarch
jeanny
gereent
offall
mierscher
gelue
##ournement
separatioun
ere
cycling
femme
ausdrecken
buddeler
benjamin
gregor
szeen
ecologique
##mperen
ronaldo
albumen
konstitutioun
wiesou
francisco
steil
studium
johannes
hannerteneen
##bing
##issan
hefteg
solidaresch
##kapit
luerenz
contenu
perd
journaliste
##persoun
nagel
##saccord
spuenesche
ian
##tgen
##sky
reunion
geigesaiteg
##spak
disco
gewerkschafte
unbai
gesonde
##weisung
boer
asti
japaner
fernando
nacht
noutwendeg
zaitraum
##awen
reel
prozeduren
##hia
esc
verscheckt
sonja
indextr
interventioun
jonathan
demiss
borde
telefonsnummer
decisiv
sympathesch
##produzent
berechtegt
communal
deklareieren
jimmy
ersten
##dacht
junker
##kre
hoffenheim
scholde
ofwiess
dad
1958
schroeder
stan
instru
danielle
noutfall
uniform
matin
eend
onkloer
berliner
pert
nozel
##ills
heimat
patric
##esdag
parken
kox
dohannert
investissementer
pluriel
lom
dohir
ecran
geknuppt
##onte
davis
##breg
decisioune
ness
da¼
duerchstraichen
schaafen
boris
bieber
diane
kilogramm
vertrieden
konf
##queiert
##iano
dex
virkommen
##hton
abrech
refugieen
hummer
gret
theme
sponsor
##eschaft
westlech
##ibles
propositioun
cyclisten
bierchem
bundesk
kroun
agrar
fischbach
##etta
treffpunkt
mieux
annick
changement
##korder
kids
marok
gesetzes
australier
##nisse
##bab
wirklich
##regierung
turk
##bann
##utten
beherr
zolitt
cort
##endel
guest
##dreck
blesseierter
elektr
ihrem
fraistouss
##eleieren
wood
zesummeb
circulation
ugetrueden
##a¨ren
moossnamen
unm
##elson
##ecd
engageieren
##inet
deis
instanz
beruffs
ausernee
##ianer
linda
starebild
verreit
##ageiert
meigleche
linster
reegelen
medezinesch
daermooss
scharft
beroden
##ieler
waisser
hammel
uci
materie
neiste
allemand
greven
koord
absolute
elauter
##nesser
scholt
boukels
camionn
virfeieren
assad
##gon
kriminaliteit
depp
diab
farwen
alpha
explodeiert
entert
diederich
energien
delai
novell
##fuerdert
indianer
biirger
lens
##pflicht
##onceieren
intresseieren
griichesch
bulgarien
arel
chl
moi
eltern
reste
annoncen
ausmooss
##rekord
quand
depensen
schlau
gesiichter
##ehen
bequem
apdikt
populismus
portugies
obschon
##ibl
opgehalen
maat
pake
fake
excurs
aussen
methode
becher
progra
heiser
repart
vinc
steisst
zoufalleg
epid
1948
weltweit
semaine
##rooss
##ophon
momp
barbara
kontinent
vs
##yne
verdeelen
belair
verbind
padagog
continue
devi
monica
keelt
oppe
recken
hausdeieren
klassesche
educatiounsminister
sais
keeper
indic
weld
grave
##handlungen
ernennen
roberto
emstandlech
self
rouspert
##sprangen
##cte
##ierklech
traum
groß
superstar
##wampech
neben
##handler
vermettelt
nogoen
epic
epreuve
pisa
##abeier
##brand
urspreng
##ibilite
1956
netzwierk
##antikerie
resistenz
weltranglescht
eelste
schwarze
##iseierung
flash
proposen
borussia
berouegen
##letico
##idderen
gemeinsame
miir
bricherhaff
bedauernd
noel
theis
selection
gestuerwe
gur
##ennis
##spunkt
##marathon
versa
bayer
gehol
offiziellt
klicken
##campagne
verge
wainer
gestioun
verdanken
grenzganger
konform
gesank
gefemmt
leeschte
wettstrait
quotidien
##veieren
prou
abus
vollen
##geg
##eka
benennen
sergio
andrew
versteesdemech
wourop
atlantik
##ji
##stream
gehaalen
fongen
verwierklech
mangen
nissan
emt
quantiteit
rita
hallwe
automag
garn
untern
fabio
uschlag
gede
virdroen
##ipsen
geroch
wunnraum
begreissen
proch
meiglechen
scheiner
recherchen
wueren
windows
##achsen
ugeschloss
krautmaart
##esis
weieng
##iii
verleift
riwwer
joelle
duern
animatioun
nomineieren
key
monten
elektronesch
##igeieren
schweng
##maus
sonnest
scha¼tzen
bidd
lament
loungen
tome
##pit
iwerd
mete
ruffen
mehrzahl
stenter
usw
zwecker
goss
kick
dooten
##promot
##iushaff
verdueb
putz
##a¨le
noriichten
manipuleiert
pavill
esouwait
technesche
auslannerwahlrecht
bruce
goebbels
##affer
##05
##org
gelegen
hommage
liichten
##sprozess
verlobt
bemierkt
widderhuelen
##imes
geschn
remerschen
vac
quellen
poliziste
eenzele
vermeigen
##kierch
rdv
genausou
dk
keints
glat
alexandre
essen
##ichert
asetzt
presente
spuere
swift
update
jerry
miel
reper
bak
starten
##iyah
edmond
hellefs
##ragen
kricher
##tens
infektioun
appartementer
##cons
geleierten
treppelt
##nsdo
year
##ignon
fescher
xtrait
##gla
nomin
janvier
traditionelle
fenns
##bou
law
baik
##ochen
flank
kurieis
diego
onofhangegkeet
bordeaux
spra
prive
bibliotheik
execut
##mine
##ways
ennerbruecht
##opolis
##viel
regelm
sla
schenkt
messi
germain
suessem
napole
opget
luke
latain
hm
schand
verhaltnis
unesco
behalt
eloo
visioun
ugefrot
schmaachen
qua
uschloss
erausfannen
schweiz
mechan
##grund
##oney
portem
rhone
oecd
##dom
##macht
bekennen
taxen
nich
##uments
ebenfalls
realisateur
anisha
ausgef
fid
kore
##irm
veloen
petite
##ssteck
pall
arret
##gelueden
betreiung
gromperen
##inar
geschutzt
crem
woltz
villmools
cell
repar
##ventus
lecture
condam
deierer
##zedrecken
##cuss
judden
mies
rl
##steiss
##iki
messbraucht
##kraiz
fn
wagener
umeldung
ausgesin
filter
agypten
##uehl
contrib
libyen
##yo
boom
orienteiert
##cup
abra
betreff
##work
ausgebrach
beaut
soins
videoen
krater
drummer
giew
##schicht
##riken
##zeges
##zengte
##ssa
deren
maas
spot
account
sciences
ligen
provok
assemblee
bommele
ulrike
kameraen
sekt
oktav
aarbechtsloun
allerhech
pflicht
wim
1955
ziemlech
pint
ziedel
woumat
konflikter
##engel
stuel
transportminister
##richtung
##kad
unic
verbuet
##linger
schinn
wenzer
##yy
##entum
erba
beantwert
macro
conference
registreiert
gefr
kierperlech
large
##issage
virschlag
lander
mcl
schinnen
##lose
versecheren
ceux
friddens
heite
dringend
grondhaff
latour
vergreisseren
librair
##buro
weidert
madel
##geheit
##ischpelt
morgan
analysen
brauchs
##feierer
wilson
aale
##stan
##oires
arbechts
stemp
##echnik
politikerin
liichtathlet
help
baustell
haetten
##wahle
grace
chantieren
heut
spring
##ucher
retro
scheer
musterbeispill
nodeel
geschat
rauskommen
##entzweiler
lille
rekr
abee
afeieren
oofgesch
staipen
agaangen
gruj
wta
##verhalt
##ould
978
schmitz
sv
umwelt
erstaunt
houwald
opereiert
fabienne
verteidegen
elizabeth
rumeuren
durable
aktien
transporteieren
schleissen
ofgebrach
republ
zukunfteg
superieur
stenterlech
hallew
##dreier
yor
stehen
##politesch
##dunn
keent
schepp
length
gela
##wendung
pilote
zyklus
##hack
reselen
gereest
cav
##soft
unzeb
ingr
freijoers
sent
suz
contra´le
nodenken
katar
##zeleeen
akku
ersetzt
##zitt
##kennen
beandauernd
brid
##iseierte
privatleit
##rageiert
cyclist
undeel
##oso
##reda
##span
frequ
old
gebei
steuer
honnerten
zdf
syd
##ubt
jurist
vendredi
tns
##rakt
##owski
fich
ramp
##izz
monte
virbereet
a13
iren
genannten
graifen
##illeurs
gesidd
afd
brasilian
wilt
##mamm
##kescht
##uso
##gerappt
##eleader
roma
yvonne
aker
kulturen
##innes
##neuen
rietsen
anzesetzen
record
frouh
ajouter
femin
gewiert
##auff
ronde
##leedung
pron
iddie
dominique
trottoir
scolaire
wai
##eschbaach
##reckend
##flucht
francais
fonktionneiert
athleten
wy
carine
##uddelen
unis
##rull
kontakteiert
stounge
aarbechtslosegkeet
moon
rapper
fabian
lampertsbierg
##wien
ophaalen
##inees
reserven
##enze
medic
averstanen
poteau
kw
starts
##onndeg
##uew
nazi
##egro
gehier
shang
1957
franzeisch
musste
flu
##saust
##fon
page
cents
##bli
romaner
bertemes
jason
opdrag
matthew
tiger
radi
source
monni
##jeeen
paz
provence
a¢
veter
##itaten
bedauer
bryan
schuedeners
aachtelsfin
##elang
ekippen
necessaire
mazout
3x
rul
enkel
infos
dikrecher
watch
sportif
wollekegt
espace
ophiewen
handelskammer
##nacht
##ummt
##letz
##echkeet
ennerhalt
zous
ausmecht
jerome
##organisatiounen
##kuckt
volks
##pra¨s
liberte
simple
oneen
privats
liban
yannick
vulkan
zegutt
daperkeet
ennescht
naturpark
##kol
beant
einige
aupra¨s
flotter
##eknappchen
pix
bosn
wunnengsbau
##emols
flunk
zalot
another
rencon
##wierder
verstandnis
550
##hent
##flech
franseich
dohinn
sprit
waertvoll
franco
maya
tintin
flachen
tirang
hechstefalls
kettenmeyer
dessen
##¨re
fleissen
wak
adv
festgehal
halleffinall
##ankert
schlapp
##ifft
##urie
##gep
definitioun
##athlon
dusch
##raucht
bein
duerchmiesser
kloertext
bachelor
##bef
geeschter
baisse
dark
grof
tabelleleader
##politiker
##ittel
geparkt
exploit
zach
atletico
egl
seinem
linden
malays
##jektiv
##schm
##finanz
klassement
charakteristesch
enten
verstoe
##esener
selbstanneg
prisongsstrof
¤£
##dok
manifestatiounen
rupp
opgest
eren
plein
##ernuecht
##fachen
interpretatioun
ra¨gl
pepp
ereffnung
rutsch
laus
herrlech
kaddo
##charts
konnts
field
opgoen
feste
every
patricia
strassen
##sprais
##wig
anzefeieren
klouschter
harpes
kollwelter
couv
concernant
##sthe
datselwecht
mittel
##bir
miner
schlemmst
rib
weier
branche
schmidt
1951
terrasse
##rieb
bundest
djok
tatt
emsch
greiwel
eduk
reese
verdeedegen
##waart
##rovers
##orien
alloc
frisch
arche
##abil
##sou
valerie
##uper
aanerem
dimanche
virschlei
##ewald
eislek
##ouren
samedi
mondiale
yannik
brothers
demar
nasa
lost
mankt
verzieren
melanie
##bezuelen
bissen
fanke
schwer
##olen
briten
##ista
keel
militaresch
avenir
chicago
##racht
##isson
griichesche
brigitte
beienee
alexis
venezuel
##mag
ausaus
regierungsm
dommheet
meiglechkeete
##riam
ugebuede
verursa
boch
lay
greg
teleskop
gefaellt
ugedoen
pell
##ij
##empl
##itzen
nex
ingrid
nelson
death
##dagog
##lines
richtech
iergendeppes
tonnar
##iem
fraisen
undoen
wahlprogramm
vitess
tuerm
metiers
##rief
##journal
gillen
hescht
##pop
1930
etableiert
sportsmann
tickete
comicbuch
flossbett
slowenien
lachen
wiesen
##bell
kastr
bedr
sympathie
zouganglech
kadaster
intelligenz
matzemaachen
##leissend
kennts
colette
applizeiert
##sters
maka
clark
gesundheit
##reiwe
hauts
europaischen
verhaltnisser
chantal
america
nervt
spec
sean
##ontroll
denkmal
##ries
detailleiert
euphorie
grevenmacher
1x
##kas
opbauen
viischt
cosl
nen
##oolt
faux
clausen
formidabel
##championnat
meine
##igger
floren
robust
##hne
##achs
konjunktur
gour
##dier
immat
traditionellen
gemeinsamen
isoleiert
##groussherzog
helena
pg
blessuren
1953
ofwiessel
schamp
frust
lev
thir
##opbau
wurth
investissement
faith
rietsextrem
bc
##emst
decision
pisten
produite
arbitter
##aerft
spekuleiert
excursioun
bnp
amstann
iwwerdeem
lupp
dreem
krieps
gun
##otesch
##ikelen
lucht
samsdes
italia
eut
liam
sudafrika
papa
auditoire
comb
kalkuleieren
peking
aire
##ondes
preuve
verhandlunge
warum
enthus
##planzen
walt
doduer
bloe
bankrott
nostal
##ourismus
aggressiv
falscher
paulette
foss
some
vull
genscht
radik
akadem
gard
capellen
gromper
##weller
rollen
spectateur
variant
krem
bessert
##iese
mandater
therapie
bradley
friedrich
##mos
prendre
domader
langweileg
##emon
##eschw
liebe
renonceieren
substanz
##iedegen
##gesetzlech
geleen
##hil
ancien
konkr
criter
unzehuelen
temo
##dait
jog
servais
sonnt
modernis
vertrett
mariage
vic
vival
bestanddeel
ada
membre
quelle
theo
corn
rudder
where
wuelstand
gamme
nnt
genie
##gade
lily
##ssten
##inform
daß
ausbau
##geschafft
meyers
rappel
##sproblemer
raf
##apeut
jiddwerfalls
hollerech
pari
bram
1954
transformeieren
luck
ofhellefen
fuerschungs
reise
kierchefab
scient
##jandro
##orp
gewielten
cora
wuest
asteroid
effentlecher
qualifizeieren
atlant
greiwelsser
tauschen
ophellefen
europawahlen
totten
##ova
##issant
gingen
biissen
administrat
riskeieren
mathem
cancell
presidentschaft
annerscheed
vitr
squ
##echef
##uts
ausla
sofia
greissere
eta¼d
##lechter
virwerf
brennen
ennersich
echappee
chemin
vollekspartei
aaliyah
stabiliteit
aloyse
jub
##eiser
##eitung
##branche
##prise
besseres
fortgelaaf
dummeldeng
##ieme
prima
000a
talenter
optrieden
their
##ernew
illustreiert
laurence
allerhechstens
confinement
informationen
reprise
ice
tania
imme
##konst
sweet
tommy
flunkernew
djokovic
abbe
##ichtegkeet
gesellschaften
neuville
waffe
##ografie
gewinn
kneip
facher
miess
##oport
regeieren
photograph
bous
zorten
bereed
##immel
promoteur
vignette
grotz
##ellgen
fire
thein
positives
##eres
suis
mountain
sanitar
engels
inaug
terre
fixeieren
inkompet
##sphar
arbit
napoleon
heinsdo
goalkee
unzepassen
exekut
##jenger
##uchs
exekuteieren
juventus
##saach
maueren
eurogrupp
arabien
50er
jugendlech
josiane
rechen
##nei
teresa
adrian
##2r
anstand
virsiichteg
eewech
villmei
austrett
verreckt
115
carmen
##boy
girls
schleisst
##a¼r
##iar
deijein
verkehr
##iichter
suivi
##rix
flemm
benannt
detailler
##inzip
elton
eurozon
karin
ageieren
myriam
promotioun
##institut
absurd
cry
munn
gebonnen
eleg
zerp
lucy
enfant
maertert
ayant
krisen
residenz
##vez
ennerschreften
democrat
viseiert
wick
##isy
huss
verstandlech
torn
##isatiounen
soudass
draierk
leeschtungs
##sapparat
mclaren
heraus
ma¼ssen
vergreissert
##pot
1900
genesis
heichschoul
stadium
geklomm
##jan
luut
luna
pann
##etet
verges
reckinger
aanert
alejandro
virschloen
dateb
zimmer
stiermer
habiter
drastesch
tottenham
gym
initiativen
jobs
mathieu
##deschhaff
iern
thil
leng
##ennerung
##ship
volk
bombard
##yna
desst
##abele
##skees
tricol
communication
zorte
1947
##alth
betreit
montee
yog
verzielt
belast
verantwortungsvoll
##atel
##enguer
bewert
chouer
##eform
gelungen
zerweiert
sydney
##ernite
slowakei
ceta
beien
points
verletzt
werter
gekacht
notzt
##demokrat
aise
bemol
##reichen
nogel
louise
agespaart
amp
chanc
##spers
##regisseur
billboard
hiiren
baerd
fleiber
eenzelen
wolfgang
florence
lum
##atiker
iwwerf
book
guich
werten
ongewinnt
hiefen
terrier
rebellen
beaucoup
##omi
rahmen
conclus
ennerscheeder
frig
##wellegen
microsoft
##hum
##ierken
paula
litauen
##cue
diktator
occasion
iwweregens
federer
auslannesche
prufung
festung
banc
konsbruck
steffen
kapaz
miles
nelly
##oon
kai
abu
produktiv
medical
lenken
##kenhaff
lind
gereit
erwahnt
weste
verwierklechen
auro
bezwei
strack
ms
mettele
flaach
kopen
quer
##reiwt
guerre
retra
potter
lan
nospill
paolo
##cto
antescht
kenschtlerin
mueren
##h15
##omes
jorge
postcode
kall
zie
verwa
laisser
chev
publics
##esteier
gemeck
peru
rietser
##raim
tristan
enttausch
pfalz
##comite
isaac
montenegro
souh
marine
##oulin
fotoapparat
##concert
##munchmol
##fo
##kommiss
liwwert
noah
arn
abez
jamais
sylvain
##kapitan
deelgeholl
kreeieren
madeleine
eierbar
##promotioun
pavillon
vergesst
matze
formeieren
positiounen
equipeiert
jordan
oneenegkeet
pp
spuerkeess
vendeur
dingscht
ride
nova
concorde
fondamental
##buttek
indextranche
##ross
sagan
puermol
here
afp
hos
kind
##stadion
observatioun
tyler
colonel
##ovo
##kipp
cha¨
singer
##assung
##sbusch
senegal
geeiert
freit
##eilt
unge
pond
integration
erfolg
##ska
##bon
read
stroof
##iasmus
bensinn
fonctionneieren
margaret
alzeng
##import
marsch
zesummenzielen
skeptesch
##rette
##dokt
vincenzo
##steet
daitscht
bereck
maneieren
onsecher
verdeedegungs
singapur
##geber
##icac
kuerzen
##schneiden
thoma
##agram
##skanner
ennerschriwwe
capit
thematiseiert
grant
1939
parker
assurancen
bedeelegung
ironie
echevin
ced
sportshal
##ventiounen
volleks
skandaler
punk
verwei
spuert
contournement
probleemer
mans
##eimer
wichtegt
##zetrieden
wandsteiss
descht
##otze
onheem
abba
gehen
personen
finden
liichtjoer
demokraten
##eirt
goergen
amplaatz
istan
##era´me
gretz
##feind
axel
entrepreneur
##zar
anouk
##schaffen
##gehuewen
summervakanz
proprietar
possible
ageweit
tricolore
matdeelt
ga¼
objektiver
discuss
editeur
eldoradio
days
##esteren
flav
brigade
bezuehlen
besseren
miller
itunes
modert
serreiert
##genehm
sitt
##etit
##riicht
patrice
theodore
zyp
##oral
geiw
kins
demy
##ikater
##istent
come
bildsch
progres
oise
gesta
##geworf
gentil
##leefeg
##had
##ockt
kontrovers
western
kiischt
felicit
arraªte
hacker
ongesetzlech
vereenten
hommes
graham
doris
ernannt
staadt
##tum
saf
##efeld
loy
gib
schwain
gloda
moyenen
arnaud
born
##victoire
##schied
##allten
leitpl
placken
graus
##ekommissioun
vet
##ourse
##oliber
aline
pascale
marcus
heinz
zigarett
onbekannt
nigeria
ierfgroussherzog
heihinner
turin
##enneg
adjoint
traversini
bulletin
grethen
##biewen
##abelle
drechent
interim
kuerf
gefahr
crash
wouerecht
sevilla
krier
adel
biergerkrich
risik
geschaftsmann
panama
geigenden
auswierkungen
lx
comput
yol
zeilen
##rochen
postleit
##gespreicher
observeieren
demonstranten
iwwerpreift
schar
##echtenstein
aischen
pestiz
sher
##formen
##ilden
check
staate
##gemach
##proch
scheinheet
industriell
schmaacht
buss
only
baden
beton
mecan
ufanke
nomettes
senioren
esst
lill
rausch
##inselen
sony
songs
metzler
besonneg
entscheedungen
hetz
stu
strasser
population
streider
santiago
profiteiere
paulo
konklusioun
##zern
##uda
annie
vergreisser
residenten
eelere
gereng
leonardo
tunesien
##aschent
##delt
rafa
##uellement
recycl
kylie
thailand
##chers
antrieden
iwwerleen
bruet
##enzaitfueren
transfert
schampes
need
ugel
drengend
meteorolog
##kolleg
##phonse
paribas
##kand
desc
##kerech
fligeren
tipps
sanktiounen
presidente
oliven
diffic
islamesche
prioriteiten
siwe
soi
titels
vivian
deutschen
hetto
troph
zolit
##itzer
eischen
guard
francoise
demissioun
sav
offensichtlech
eif
pie
vid
verse
domen
staatsfin
verpflicht
feischt
hdr
right
##lann
erhalt
freee
impfstoff
harrison
verpassen
zura¼ck
rea
cornel
pauly
##vertrieder
japanesch
mariah
sponsoren
lp
sier
waerd
##spekt
beschr
associatiounen
aerzbeschof
##niveau
spaicher
steichen
iwwersiicht
gales
veiert
bleibt
fantastesch
arena
howald
csu
gitar
kell
cargo
kabar
##klappen
##atcher
lasst
care
lincol
revolution
francesco
pompje
gedriwwen
##scheffen
##phase
##engung
##oque
##arnung
mammes
kohl
##gemeet
colin
fluchkapitan
ofgebaut
kompetitiviteit
jera´me
saw
##ilien
sabr
ausse
##saus
ursula
opgehuewen
grennen
##attack
aarbechtsplaze
##ollger
evangel
roos
opgere
istanbul
bean
rescue
raff
festgehale
jiddfer
psychiat
nozedenken
alger
asiat
gebrem
##kees
liechtenstein
ereeg
nes
usp
flatz
braichten
carn
offerte
fabien
virgesi
vaccin
shanghai
tend
360
derwaert
dirk
brongen
##verl
##erding
streiden
differents
zesummegesch
opgewuess
goungen
fev
victoiren
etableieren
beefort
515
onm
antoin
##ofkommes
evakueiert
postleitzuel
##uere
##usteren
douane
wolff
##sprodu
verannerung
##oooooooo
lincoln
assa
bab
levi
impa
meecht
civil
ihm
tib
##isir
##hlung
appui
schreftstellerin
teschen
marguer
##smes
sabine
marino
##frend
faarwe
journalistin
unzebidden
##efir
ukenn
untersch
ofgeschaaft
ressort
joana
recept
generation
woer
wichtig
cyclocross
##stitel
1946
verwandelt
##zeihen
konkurrent
betounen
ministerpresident
aschreiwen
please
anze
drenkt
erausfuerderungen
fluchhafe
hillary
rakeiten
##ructures
tanja
##beem
##rov
noir
partizip
klack
eventuel
lanceieren
jum
##huel
gepasst
##haupt
iwerhuelen
jade
bros
originell
veron
giwen
##andez
ambiente
jait
xd
annette
fligerfeierer
usm
##ury
##eierer
iwwerluecht
##onga
rechtsstaat
huld
dirigent
hunter
ettelbruck
maerder
##grammer
ugestach
##infekt
##ilie
gebidder
find
serios
familjen
inaugur
vertrauens
baue
pereira
nadia
lundi
beschter
zeiss
jojo
##ucke
fotografeieren
liegt
transfer
emmerhinn
##paff
ouschteren
##strecken
passioun
martins
ugebuet
veirelsfin
ageriicht
##isste
plangt
1920
gangster
flait
biolog
revanche
zoustannegen
oliveira
##avid
baerdref
##attent
##odell
ausausdeenen
bella
hels
jake
plen
verschl
chreschten
ra¨glement
kang
##plaaz
mali
ausgeglach
nojemer
##aise
##obe
monumenter
chinesen
putsch
##urn
sag
geleint
edith
1952
##uddelt
neutr
gebiet
mariette
certains
onbekannten
equippenzaitfueren
zeimet
ferdeg
sang
mata
bliwen
euthan
antoinette
##h45
abriecher
locker
maxime
##findung
##01
arsenal
cancellara
##importateur
alphonse
uschleissen
responsabelen
vermessen
annex
lingu
##iater
labo
behennert
uerder
siw
intro
entente
cole
chapeau
marguerite
##mesch
puppelchen
hiel
##laub
ausglaichen
##unterricht
agestoen
leiweng
game
liste
##arteg
##prem
probeiren
menung
localite
allianz
palastinenser
abraham
cuis
sko
affair
anders
friddlech
gezei
##parad
enquaª
vain
##achi
ardennen
enthusiasmus
nort
##etes
##ieser
jude
##gebung
hang
monn
##far
whit
anderson
adams
gonc
weydert
berecksiichteg
anita
pais
rack
lorang
sabrina
##rise
##raft
schrecken
marien
##kaul
avons
evans
theresa
seulement
scheinbar
inszen
testament
onneideg
kreativiteit
##leur
besetzen
dorem
stephen
quinn
avez
liichte
##katast
zwangs
geburt
jidderen
ernst
juliette
ethik
adrien
##kierper
##steng
##0000
server
##ventiv
##loener
util
akafen
ernahrung
befreit
texas
ideologie
scheuer
begrenzt
meeting
wack
##sbond
agezunn
berufflech
rucksicht
rous
##nthia
kosten
gloden
physesch
keieren
woss
formula
hurt
wissenschaft
citoy
##nest
senior
reformeiert
eil
beschellegt
##ia¨rement
nuet
weniger
##derie
wuerzelen
piet
##¼st
beemmer
venezuela
##wenkel
frascht
##respons
##material
befro
geschwe
##zentral
margot
bieden
##indy
geknipst
verurte
deiererub
##schel
##gebai
haet
maryse
protagon
appes
##spetzt
gra¼
annere
gaby
tourisme
hotels
vivalavid
vivalavida
021
tent
##ammlungen
publiz
corner
tatsach
equilib
unicef
gebremst
hausauf
neidegen
cyber
connor
gonner
iir
##uber
amfro
speed
select
produz
##krech
ausgesot
demanden
poub
##oria
emgesaat
##faeg
manon
beigen
fra¼
humanitar
330
##apte
politescht
determ
pedagog
fielsmillen
playoff
emilie
cler
##atra
pladeiert
##cci
grengewald
burn
urteel
##eman
zousparen
burg
schaaft
nometten
historeschen
deemolegen
##netz
anlag
##lay
hitler
demandeurs
openthalt
portioun
emily
successeur
##ifieieren
demo
##cees
bescheiden
##ienten
russeschen
grimmel
kopenhagen
biver
dicks
recktrett
volker
angelo
yorker
hors
##aik
iwerleen
flaiss
goedert
rudy
##eliewen
empr
##verde
wahrungs
feierdag
kanech
akaaf
lettland
zert
##graif
nordstad
batterien
##vergne
##briechen
##uerno
evolution
allerb
##schluss
rodriguez
trap
fonctions
nepal
pull
ethan
##ores
ausr
gepragt
autosimportateur
wale
##uerei
denise
elise
bewonneren
solar
preisen
kit
##hotel
##sud
chile
101
donnees
fevrier
multim
##engerbierg
blessure
baidroen
##rio
silvester
deposeiert
tribunal
geschidd
akteuren
olivia
radioshack
bott
rachel
unr
onkaschten
dubai
creme
komfort
sanktioune
##archiv
kaerjenger
##datum
reglementer
authent
hiefenech
sep
rezept
streit
erennere
duerchs
molitor
gereckelt
corp
investisseuren
ici
went
houston
gabrielle
pup
##kopp
brutto
##antz
krunn
riichterin
##hanna
saarbrecken
turpel
##ilereng
kontinu
iesel
##ehalen
naid
##bried
hauser
palest
konstruktioun
finalement
rossi
phantom
cindy
konne
##cktail
norah
mellerdall
flexibel
commercial
##omot
virleien
ashton
carla
perez
luxusbuerg
secretaire
##pensioun
vergi
kriis
faite
rondpoint
manifestatioun
floener
hoen
##view
midi
##ellement
auvergne
weidergoen
ausernaners
erennerungen
erwaardungen
project
bankgeheimnis
simmer
##hit
##ruede
duecht
centrale
pilger
ubidden
cooperation
##billig
zon
stick
investment
invitatioun
fatima
rheinland
scholtes
vice
voie
suzanne
gael
emotion
verbonnenheet
##usalem
kabel
friemen
bommeleer
##imol
##ades
greisster
funktiounen
##nehmen
artis
salom
italieneschen
angelina
##led
##emaart
argent
rui
pun
2022
##asen
##oke
##dokument
opfer
sea
toyot
atelieren
betreffend
##htt
nouvelles
##rip
hahn
choc
neijo
##egew
##itution
satellit
geduet
##center
moore
instagram
aarmen
nogeduecht
haaptpersonnage
easy
fbi
oek
##etzunge
##mesuren
gaasperecher
oeu
##sseler
##olz
##erterhaff
106
construction
##dafrika
##ourage
##berger
emweltfrendlech
besonders
##roffen
value
wiltz
##chi
nept
mexik
bennett
giuse
koka
arbechtspla
lopes
reest
krankek
menace
shooting
etgen
beschreiwung
memberstaaten
astana
##anchez
fend
hiv
tes
##retter
mireille
amerikanerin
hudson
surveill
pisc
zel
##kop
##denz
##artikel
breede
thorn
##ellege
boff
april
starek
viller
kaut
hannah
balkan
emotional
figuren
vergiesst
##rend
heim
sudamerika
vito
mertert
joshua
opklammen
##wenden
leute
145
witzech
gaasperech
yu
##iecht
##iseierten
verwaltungen
stattfannen
depute
augsburg
friends
fabrice
##egatioun
wellef
concept
poos
academ
bedeiten
motocyclist
matspillen
bekannter
ennerschidd
intellig
uewerflach
florida
##leschten
gewannt
##otzung
faiten
germaine
##verdeedeg
cathy
zerguttstert
cant
##bud
stella
investitiounen
dahm
zaldote
aids
##the
##iee
proje
metrop
skandina
##rasent
##zident
proph
##zegin
gekierzt
##hellt
beandro
##geschier
240
other
aaron
akzepteieren
collectioun
remarque
hunneg
##gewenn
formuleiert
adresseiert
betzder
pk
geldstrof
arbeiten
bomi
manuela
portugisesch
duerschter
geiff
ba¢t
stees
duerchsiichtegkeet
##elope
begieren
mobbing
tschechien
##ausstellung
inklusiv
bakter
ofl
monster
paulus
snow
sanchez
zonen
schwemmer
##attert
traffic
giuseppe
##ierper
##spomp
waisst
fiesta
nofollger
toyota
##ellten
avi
senat
sonia
begeeschteren
ohn
##uy
brou
lokaler
##ilometer
intressi
vitrinn
tod
geid
zaitspan
fundament
casting
manktem
##ideieren
chan
##wierken
zesummeges
blake
alpen
bitte
##linnen
water
austin
technologien
##ni
##orer
##saatz
iwerra
kraus
allgemenge
gehe
admin
autoriseieren
reduz
observeiert
sensibilis
accompagn
eich
allers
joerzengt
##spa
offre
defineieren
fluchgesellschaft
laboratoire
rennt
1941
opsteiger
cynthia
##raif
intim
femmerten
dondel
jesse
geja
##blin
grass
money
namlecht
elisab
hern
suche
walk
journalier
##loos
geforen
bouwen
souteneieren
bamb
hostert
nordir
schefflenger
doudesfall
doudesaffer
sondagen
frechheet
gasperich
ega
##fait
schaus
jonge
birth
verdeedegt
##gottes
u2
1949
##faar
verbuergen
fleeg
erschafen
emilia
brow
dominic
consommatioun
protokolleiert
navig
openeen
weimer
##antha
europaescht
##entlechen
zolwer
identifizeieren
trapplek
systa¨me
konfirmeiert
liichtathletik
##deb
deswei
berchem
sechere
##gemengen
generol
ducale
opstoen
louchen
honda
gesondheetsministesch
##¢te
##esteen
change
fragen
##ask
bald
distri
fernandes
##aue
ration
##master
verwinnt
terrass
kimber
bera¼hm
demissioneiert
##also
##elte
mp
thielen
schaack
##ackelt
ricardo
eden
amber
##reira
##menster
dubbel
caden
michels
menscheverstand
niewendrun
feinen
mong
konten
klore
coco
klapper
minute
groe
heint
passiv
konsdref
##coni
professionelle
stephane
sogar
zwang
exempl
schafe
natalie
frontmann
ausweschen
division
deiererubrik
ddr
##waii
europawait
tablet
konkrete
versuergen
baseieren
soulang
rain
elektrom
participeieren
marques
evan
garer
staatsbe
dementeiert
soudatt
##igail
feat
jacoby
commissaire
ereegnes
eieren
##genden
brief
nehmen
bezitt
andei
uewerk
farce
repartitioun
akerbau
urappen
##oner
##enduer
chloe
strofen
aget
endlich
##char
gebotzt
aggress
talk
adequat
amis
##sak
erofs
kliniken
argumentatioun
styl
auvre
egois
##kow
##faheg
flaschen
rebe
steif
recommandeiert
influ
hollannesch
belgique
##phas
##02
##esseren
regele
madison
erlaaben
rebell
kockelscheier
##pabeier
baig
exigeieren
sandrine
gewennerin
wuesstum
novollzeien
eglise
nospillzait
##wang
anc
##roid
opzemaachen
kinnten
sexuell
allze
##leaks
##igten
##emperaturen
bentley
objectif
##umme
##ourne
gefallegkeet
drennergraifen
aarme
cine
alm
duergeet
gaasch
adriana
propaganda
wa¼rde
##lange
##rapp
robinson
habscht
teenager
domenico
tl
beemol
gefilmt
##cial
##sgruppen
tand
heidel
##odel
brooklyn
genehm
hold
bauere
exemple
##alscht
verbl
ofgin
geplot
dierfte
kommerziell
otto
skoda
johr
allefalls
gewinnen
neoliber
perseinlechkeet
cash
wun
deont
schlesser
gekra
markeieren
rechnungen
gonz
allt
velod
virge
geraumt
verbrauchen
huberty
erreischt
nib
vau
##ori
##ippe
##frank
tarif
ambassadeur
##leb
alexa
fixeiert
##svertrieder
fb
fudder
amir
maut
eschduerf
basil
assurer
suspend
rebecca
klei
tad
##ssall
gestaerkt
friichten
ermettelt
##rist
##rift
##zaite
revol
houschter
preston
jeremiah
duercherneen
aider
feit
elsen
boxer
german
frieder
mannerjar
##xton
angelduerf
body
gumm
ophalt
##ormer
##bewe
mettwochs
verhandelen
homolog
solidarite
collaboration
fiff
dert
##rodeschhaff
##ivre
##verick
verwonneren
standuert
zieler
jerusalem
opgereegt
geho
niewe
waarme
##richten
##wich
##ities
gouff
isla
filmregisseur
selweschten
mila
distribut
##uay
yolande
satis
##ommer
gavin
hitpara
henriette
kosovo
ela¨ves
vins
erdroen
handler
starken
konzentratioun
emlaf
bestanen
glaicht
finances
koal
kontakteieren
lannener
bug
biden
lilly
extre
##fect
verreckelt
neck
##09
emool
waschen
virgank
##klin
valverde
reagan
jacqueline
pant
##nent
opkommen
autorisatioun
##dex
##sterrain
sophia
499
##zun
##amo
halleft
aaler
##schess
##ilm
##agent
##fair
motiver
schuman
##llt
anzegoen
gaspar
penelope
bertrand
liliane
meisseg
exam
clara
glesener
manipul
##ikass
marthe
gekemmert
knipsen
##holm
glodt
accordeiert
widdert
amnest
schlemmste
schiedlech
disponibiliteit
joao
maverick
##quim
kenneth
##gehen
disant
kapitalismus
nicholas
full
section
saiseiert
thiel
eliane
rempla
bourgm
onner
informatik
apel
luerenzweiler
knall
sudlech
##fennt
##iella
tox
##dengs
everly
casterman
ezra
cadeau
suff
##edo
##brecht
years
europadeputeierten
##van
##arab
##endeng
confort
##gesin
goes
efforten
##isches
caleb
cgdis
button
gute
lecker
opgaangen
spl
muncher
##enkung
fiirt
isabella
sylvester
impressionant
verdeelung
bereit
##door
semin
anuecht
##ormal
wenig
brandon
armando
rafael
fallen
vertriederin
tucker
entra
luxembourgtel
maisons
economesch
attraktioun
##funkt
santa
familljem
unmat
faa
kopf
accessibel
parlamentarescher
legislaturperiod
gedenk
##enda
attert
geinteneen
walker
ausenaners
ersaat
theisen
##opul
##quel
portra
mettelgrouss
tempel
ongewess
##gewenner
gedroe
roof
formulaire
flair
sauerstoff
kimberly
keschten
##mound
schichten
presley
charly
autoroute
maar
##amlech
##ters
patent
##eidegung
bulli
baitrett
akl
ebola
tango
##coll
##enswaert
absicht
astiechen
ultim
state
erwacht
##onnaie
erliicht
voyage
kokain
rif
roul
abel
negative
chauffeuren
kopie
murray
innovativ
cecilia
nerdlech
##mord
##sland
intl
102
##zuelen
spag
meuse
sozialpartner
webber
bmc
hopsen
yvette
kust
assureiert
austauschen
professionnel
lentgen
scene
lucie
buerghaff
bailey
bildungs
eroplueden
ruby
speciale
##itare
iwwerlooss
these
harris
draimol
grondsatz
zesummek
a6
mason
##ermann
##queur
peg
daich
emkomm
allerg
jup
adapteieren
##to
##elf
gespenst
olga
entretien
kyle
##ertchen
kleine
##format
wend
baart
faust
hierber
probeiere
iwwerzeegung
immigratioun
destiny
mammesprooch
##paus
demuth
heizung
compos
suiveieren
qualitativ
##eglaich
mathe
elias
monopol
nadal
verkierzen
mertens
louv
roby
wales
discip
schigger
virgeholl
deponie
vest
queue
logan
logistik
kapott
iwwerwaachung
buscht
daisy
zebra
doniewt
##offiz
ursprenglech
##riss
haft
village
gefla
wertvoll
nouveaux
tschechesch
##yph
harper
##zeber
bemei
hbd
hertha
tue
##zing
geed
konrad
films
timoth
venedeg
balt
wed
##stoen
##verdeelung
amenagement
neptun
geauss
samantha
vision
kompliment
sexy
solut
aubr
dres
titre
biekerech
##eselw
iessmarathon
joaquim
cold
danger
lall
brant
parents
##zeechen
##fa¼r
couche
woman
devant
##dausend
maa®tr
waaren
einzel
raik
politiques
vehement
losst
weia
lav
##verloscht
filipe
annabelle
scarl
lila
melody
sold
bahn
trip
festivals
policeb
begleeden
chorale
##equipe
##issementer
naturelle
colling
cristina
frederic
##yenne
##genotzt
abber
imper
koppelen
##egesetz
##qualifizeiert
egaal
pion
##aarbechten
maqu
hargott
affaren
leitung
brems
virginie
cum
wamp
##fliger
opzehalen
installeieren
opleisung
aneres
atta
hannergrenn
gegleckt
earth
scheedung
1935
##enshaff
zousaz
klengem
##sheem
griech
ugesi
vereedegt
dil
##peng
##dot
##schla
mafia
##leefer
titan
retourmatch
kait
prosper
bains
dias
chefreda
auchan
maxwell
bettenduerf
conform
abigail
scheif
rodrigues
dippecher
##figur
ashley
lake
##denkt
polar
secours
rullt
urug
nordamerika
helling
zoustanneger
silvia
##dausende
nibali
da¨s
strass
##ariffer
aurora
##cam
fahren
convention
goa
gellene
iwwerschafft
creation
sauerei
amfeld
##spronk
verwand
akk
chauss
experienz
ausgabe
suerg
##rm
##skand
leidenschaftlech
timothy
berlus
clip
##cchi
eem
maire
gesonden
nodeeler
nations
spillerin
dumont
ribeiro
damen
gianna
muriel
##aanwen
marokko
langen
neimenster
verdroen
auster
amend
progn
iwwerrieden
abend
treffe
dengt
defekt
feiwer
wright
ausget
konzerner
gewissen
paral
katherine
karier
kranke
kamer
##leeschtungen
liliana
##struktur
##nees
##seid
##steren
opzestellen
1919
heintz
##enduerfer
erbai
hazel
bliwwe
ariel
kirchbierg
mckenzie
##lani
##wl
brielle
darauf
invent
##abela
unternehmen
geaussert
gengt
##oneieren
etudi
gemoolt
molen
weiblech
soum
verstouss
taktik
reieren
two
##oer
luigi
natalia
gedd
##lichkeit
kollisioun
##ablen
libanon
##geht
##leitung
emin
##ilius
sagen
deep
naomi
invasioun
gengler
##gemeinschaft
##eenegt
verleeft
londyn
##kend
rekorder
geschenk
exklus
stewart
hapts
stor
thor
familial
olympique
##kaerjeng
agereecht
oster
piper
##esh
grousselteren
corre
baussent
molly
pesch
##grei
##elech
emerson
allison
##trade
koment
jidwer
benoit
sekretar
##ffort
sii
josette
##ierft
bareldeng
pierrette
175
hinger
wohn
gewessenen
activite
vreckt
stir
soign
richtungen
besonnech
fenteng
##utter
mateo
visa
streiken
valeria
sierra
layla
eemoleg
fixe
auslanneschen
weyland
lombard
##urz
verglaicht
bopi
##ving
bestoe
erausgeholl
brady
suivre
kuss
##¢ce
geni
race
evol
diskret
namib
ryder
alyssa
rare
anzwousch
##wagen
##geschichten
kaerzen
opmierksamkeet
nervos
bellegen
##sbed
juliana
dofiir
modifizeieren
duerleeen
ofwaarden
quatre
subt
setzer
entwecklungshellef
salvatore
iwwerl
heibai
leilani
syresch
##betreiung
ugeklot
hadley
malaysia
print
ofhalen
augen
praªt
talib
satir
guff
tg
##emi
spora
##book
kingston
opzef
##estelle
fleisst
lamadel
susana
beruhmten
hw
pappen
profien
ofgeschaf
wesley
arianna
verzielen
##zegraifen
verhale
alaina
##anor
onur
##leigh
zougreff
ugefang
sascha
##ardin
agank
richie
ausgin
krutt
integreieren
spirit
##aa®ne
ted
monika
tabellen
dreps
goncal
drann
##hofer
harmony
##orca
savann
psychesch
easton
scarlett
##omb
##spopul
grousspapp
koennen
finanzement
eiw
lorentzweiler
violet
lennon
##egaart
brux
loire
partiel
diere
rowan
clown
accepteieren
semester
##texte
hung
lemmer
##test
waeren
primen
geschichtlech
nolan
important
perspektiven
##lecharts
afferen
organisator
astron
welten
cv
eiert
##umn
##lair
baim
repet
220
definitif
aiden
candid
slam
ugaangen
##lern
##wons
jocel
neuse
gelaacht
pabeieren
aier
lotto
deeselw
seance
gedichter
##heiten
gra¢ce
politischen
agit
calc
hamburger
flieger
pseudo
risiken
schlaang
cape
koplescht
gesprongen
antenne
puis
fuerverbuet
roserei
##schreften
polyval
gefale
glaichgewiicht
begrief
hallow
josiah
schaum
erausst
delphine
betreffen
nilles
witt
nash
transp
peyton
pauline
rylee
##zellen
singlecharts
jasmine
##seidank
##fond
##otyp
franseischt
hannerfroen
suiveiert
georgette
varian
schuster
mergen
filmfestival
##voie
ceo
verfol
opfeieren
brochdeel
scenario
track
nata¼r
kendall
coron
neierdengs
gezun
hallefnuecht
sommer
##eire
speck
beka
##eker
dix
gesondheetlech
elles
##entre
geeenegt
catia
zusatz
##crois
zudem
geschmaach
metternuecht
##heich
cola
herrschaft
aufgabe
schiggeri
fangt
##him
2030
confir
ofd
frauen
garnech
statement
##stroum
bopa
##elescht
future
isaiah
##pellier
iwwerwaacht
berecksiichtegen
bourgmestre
dut
think
luxleaks
giffe
invol
blosen
erofgesat
##schnitt
dreemen
uruguay
##lander
##instr
andersen
brasseur
hellinghausen
mout
toll
dead
##oupe
matth
lieblings
memoire
orthoph
verhaalen
##reia
donst
madelyn
##prasident
ariana
micah
meld
##ave
##veren
opkomm
gracie
rosport
cayden
chaufferen
proprietairen
##gangen
markus
luxemburgischen
jordyn
quo
##mannst
julianna
preparation
martinez
guideieren
arlette
matmenschen
kais
visuell
##hrerschein
ergett
jocelyn
stet
##gewise
logelin
everett
##planung
4x
biz
feller
olinger
refus
helf
lanners
beurre
entringer
zerpicken
anuechthuelen
lued
kaiden
traineieren
prinzipiell
amelia
orchest
oze
##auschteren
somme
ferme
kulissen
##kriibs
berlusconi
##liste
##ota
sadie
gespent
motioun
ellie
gehaal
interm
##kay
evelyn
jeans
ceci
declan
beliichtung
deschtennis
650
aja
##hanken
allein
glod
iwwerschloen
virgesait
friederich
darm
compagn
gepost
pinto
kaitlyn
probleme
volle
dessin
luxembourgeoises
emery
abroch
plaazen
dominant
steebroch
ruppert
##echung
matr
eugene
neva
drog
##wierdeg
hamilius
serenity
sonntag
kayden
kranz
carson
versecher
munchalt
eleanor
schlecken
responsabele
gigant
##rez
##ebel
geheier
braxton
woor
nuno
nouvellen
maternite
bedeckt
duech
manne
munchheiansdo
camden
valabel
bryce
tokio
soc
benotze
antony
christelle
gottseidank
erklare
iwwerhief
beweegen
stats
neisei
eliana
eurozone
##partie
neiseiland
dschung
##anmar
amfong
nosbusch
quai
central
##zessioun
elijah
valentina
##ussch
jace
##feeler
euthanasie
gehofft
luewen
wig
##abt
verschount
adeline
finanzsecteur
nicar
##dreiw
protesteieren
virdrunner
birthday
##eichen
remich
fla¼chtlinge
zell
##verantwort
pensum
oman
derm
##saccident
erschreckend
##zebereeden
koen
proper
contexte
garden
280
schossel
gratuleiert
heidelberg
ayden
hengen
##jeen
##quart
jayden
magali
reegele
jaxon
kukken
ofwiesselnd
kinsley
mongol
bebe
##haltung
limite
opposition
##statesch
##rall
leone
barro
ivy
ihn
warte
##geschriwwen
jayla
surt
groa
ageschloen
rettungsdengschter
eliza
paisley
##woll
ginette
concerte
norweg
##risiko
aidan
trinity
ieren
formell
klasseschen
modus
vitor
actuellement
moslem
roberts
excuse
duergaangen
noom
bah
sainte
konto
paper
gabriella
##issent
aua
laangjar
##sband
fermet
pflege
gens
ugesat
1942
gelount
elke
hiergestallt
familie
sonnenenner
procedure
zachary
eenzegaarteg
goncalves
doum
warn
naamlech
christmas
willow
spuenescher
gelueft
##peren
##h10
##kott
kleinen
aubre
brayden
indones
chamberkommissioun
haaptsach
londoner
brantley
##emchen
autumn
gay
##plaze
zeitungs
opgedaucht
##virgule
##vres
##etel
erakomm
##issteck
##emensch
paige
relatioune
hueseknappchen
1980er
connecteiert
1938
brooke
aliyah
irgendeen
savannah
ea
vuna
sprach
virkennt
weidergeet
sudkorea
##ursaach
krok
aria
zuka¼nft
##dung
defa
geschma
bryson
glanz
neiinfekt
maroc
bedingungen
feierowend
mya
horm
##sdag
evtl
untrieden
brody
jeune
agencen
egoismus
mama
faszineiert
pob
##ellte
leah
nevis
##ontaine
anny
230
##acter
superie
wyatt
##hovic
##zekiel
airport
deidlech
henger
idiot
jaden
prisonn
rembourseiert
mitchell
bibel
sri
enz
erp
requ
##bene
mannsten
bedro
##zelueden
waissruss
boni
jeweils
effizient
berbuerg
##gehege
eer
ezekiel
##meier
enov
opa
beissel
beffort
##ha¨
##waiss
##aktiounen
freidegowend
weston
jameson
##come
geland
geheelt
eco
kulturellen
kitts
##dar
medaille
##entsch
mackenzie
##ultes
verfugbarkeet
aubrey
##vest
##atibel
emmett
hailey
##skir
kohar
speaker
praiser
gefierft
fairtrade
keinen
##efen
placeiert
versich
history
dorausser
##istor
forces
franzousen
vereenegung
brianna
verfugbar
stempel
ripp
six
grayson
jonah
kaylee
bronze
emzegoen
alana
eviteiert
lillian
iel
##lynn
schain
college
koalitiounspartner
magasinn
didd
winn
stern
virzestellen
virstellungen
konkurrenten
nathaniel
loschetter
wampach
ferd
ozon
##imena
madd
maladie
##osten
##vens
gesais
dublin
ekstatesch
montpellier
entdeckung
addison
ies
##ated
weiderer
musiker
bedreiwer
##agence
greyson
beweeg
nevaeh
##orfer
geschri
##sey
##exp
fernanda
turneier
kommandeieren
brasserie
jayce
verduften
makayla
dostert
poet
madeline
torres
athena
celui
hl
datsch
waaser
sengersaits
conditiounen
katelyn
selbststanneg
enseignants
nolauschterer
amaya
ola
##alom
beise
##faang
brein
vertruede
chase
welcher
maggy
absolveieren
bezeechnen
vand
##ommt
joeres
##ennerungen
skyl
vegas
##kaarten
reportagen
bauschelt
championstitel
developpeieren
liquid
awwer
agehale
hess
krop
##tes
##rec
lap
tav
kaleb
enseignante
museksgeschicht
bezuelten
bruxelles
##rige
##isees
doktor
moossnam
komponeiert
##juegd
level
besteh
trausch
##marsch
##vicol
kaalber
hollannesche
bretagne
##zegesinn
##widder
hayden
visiteieren
demokr
schwaarzer
chauffeieren
eeleren
electric
enovos
gaut
berodung
##bremsen
erfre
xander
erste
seele
##ompson
##riewen
rolleng
##fuerschung
veierelsfin
gebuertsdaag
##zeschaffen
vou
schenken
alstad
ausnahmen
kayla
asher
##einture
camila
ofsecheren
zoey
sechert
virtrag
suic
caval
fraigehege
schmel
administratif
##briedemes
##2000
ziele
dich
geff
huen
iwwerfuerdert
hinen
micheline
rezenten
agesaat
sigma
valencia
ximena
##wull
progressiv
geschlof
musekerin
vehic
##oste
auszedrecken
sew
##eeten
##ingham
zaitgen
gaert
delila
peitenger
schalt
erue
fluchtlinge
onnetz
##pf
##volt
##alin
laila
moes
kuba
penibel
meigelech
peien
##affe
##rovic
kaden
bekloen
aneschtes
##spriechen
landon
giele
hilbert
##ueieren
##renger
schif
##geba
virgeluecht
##imools
staarkt
destinatioun
contribut
grondwaasser
rencont
recrut
fla¼chtlings
benevolat
ping
zust
##leift
decide
doktere
kinos
affekotin
fiicht
mendes
joerhonn
##alschued
oldt
archite
origine
felten
lyla
kinoen
ublech
##pet
##iles
kabes
135
2500
prinzipien
argumenteiert
diagnost
elisabete
##uh
eed
neapel
000€
relation
estim
douan
compl
opzepassen
ieweschter
influenz
perte
##mark
sinner
raw
boeing
refrain
emsetzung
octav
adalynn
lung
johan
ausbe
##klassen
##herapie
taschen
coryse
ferreira
manipulatioun
mtv
kpl
melle
geschafe
gewonne
dexia
doduercher
gech
nir
##secher
##ky
beides
say
##alez
maddox
titelverdeedeg
verbrengt
lorraine
elektroauto
khloe
##eigung
asaatz
vergleichen
colton
cabinet
jaxson
grot
##rens
sektor
briddel
manif
gouverneur
##waerteg
toul
pose
aerdbiewen
basel
protegeieren
glyph
divor
kerger
connaissance
staatsfinanzen
fia
##haren
thompson
moos
bezuch
wahrung
##matcher
entworf
ugedeit
sicherheit
##coure
##atter
hub
geneisst
fraier
##faegkeet
eremfonnt
presentation
myanmar
lachhaft
ewen
kolleisch
kontrakter
kerschen
independant
emirater
extreem
surtout
noer
conv
turbo
regionale
dynamesch
bourgogne
ausleiser
erfarung
lem
werd
##aarten
##ever
##stil
iwwerleet
luci
##ooden
##auteur
tromm
beruhmt
mallorca
alimentaire
browser
lord
pip
##chtbar
##bac
representeiert
##ematch
venus
river
schr
payton
fame
kruuten
brochure
halloween
##m2
##jus
##ounung
##oles
alves
##uedert
neiduerf
sammelt
quadratmeter
delilah
eestemm
gps
heifir
fotom
ley
categorie
ile
##role
bestiech
##ainen
dispositioun
butsch
abstrakt
taliban
2a
draam
m²
souvenir
trennen
systematesch
widderholl
aucun
progra¨s
##ziel
##aria
jop
init
entlaascht
regular
##ancing
volume
iwwerschwemmungen
ziteieren
##vage
##ibi
##sschoul
zahlen
thiry
##06
##andie
hack
konvention
hirersaits
kaval
beruffspomp
burka
syvicol
rotschlei
ameseieren
onheemlech
sawyer
skylar
dens
plaus
krieg
##sportler
guitar
##fill
brennt
exclus
clierfer
##gaud
willems
bauerenhaff
daermoossenguer
828
epp
ml
##wein
emser
virzegoen
athei
droite
brooklynn
##sudan
anabela
nascht
##emmung
##sauer
blannen
petition
nukle
teiteng
longen
##ethe
lycees
adalyn
lic
entloossen
##deelegt
protesteiert
##08
silas
weltall
ecrit
lamesch
jama
fresche
duerchzesetzen
thinnes
18h00
diana
steel
vitam
skandinav
rs
##kuerf
##iermt
ausgemaach
liesung
nidderschlag
biergop
impressionn
instruction
jeitz
anger
##ektiounen
zougeholl
##itueiert
##sozial
syndikat
wester
sey
gebieden
##vail
partnerschaft
ryker
nicaragua
kiss
pm
##yr
schellegen
##obie
karik
europeennes
##niss
joerzengte
##meida
spannende
##sat
zeechnunge
entb
ewechgeholl
produktiounen
erkengen
celle
##oma
matbruecht
lust
namlich
##rotzdeem
##derscheid
erhalten
fotogantikerie
##sstann
advent
verlangt
angst
steing
nogelauschtert
##leidert
paragua
erhofft
meilleur
##rome
##ourt
too
schlussfolger
delha
revel
iwwerpreiwen
horn
zoun
laache
onverstand
symph
glyphos
kiche
legen
##jang
opgeet
cinema
palastina
barroso
tiers
##siicht
##kuch
##wor
##quelle
tabu
autorites
##arrwer
##eift
auß
intervention
freizaiteg
koffer
behaalen
ryleigh
folgendes
azur
ansch
laenner
asi
multik
trouve
vergangenheet
municipal
##nationalekipp
pend
uget
##aud
propp
sportlechen
entschiedeg
mores
waermt
museum
joggen
##alk
gegleeft
##konsum
almeida
20h00
entste
viseier
denschdes
gewerkschaftler
reinert
zwe
bened
bagger
hernandez
word
##ulteg
disque
probeier
schlemmsten
blabla
dargaud
reckhalt
campbell
illus
tenniss
davon
player
##ufel
confiance
zigarette
oldtimer
zapp
##pist
##secherheet
emdenken
quiz
journalismus
nopere
tsun
haupert
proteg
##zefueren
##produktiv
cliarrwer
appr
list
##raaft
firt
##oursen
regir
gonscht
godart
menaceiert
eag
##hs
schiet
appetit
perry
uereschter
veget
szene
camionnette
veierten
problematesch
links
nuechten
a¢ge
ailleurs
isch
##cours
rece
##alequipe
rassist
peiffer
boykott
vulnerabel
schartz
##liches
##gabe
virtuell
ausgestouss
fuehren
##gruppen
##eins
##quoi
begreffer
spueneschen
aubree
cous
sap
schless
pervers
opgezielt
goldmeda
##europa
revis
festhalen
arbiter
reckelen
tatow
##meiert
##olie
duerduer
ofgehalen
neug
liberia
besoinen
dupuis
enga
##anglais
actions
tesla
gm
valt
##greiss
communi
103
praktikum
avantagen
virbereed
deijeineg
wunder
##ipl
erausbrengen
kompakt
correia
mainstream
heinrich
cruchten
##aicht
angem
##riber
than
dikrich
quintus
jill
ritter
rammer
zivilisten
##atiques
nokommen
##ifique
provisoresch
zesummeliewen
##wie
##cheieren
##ough
besten
111
verkna
breicht
goalch
veianen
revendicatioun
mous
consequ
mosch
sudan
representativ
mobilite
hant
dekan
very
##rence
buchler
wossten
mim
##zio
##lauf
trail
town
silhou
volontariat
goetzinger
tina
##hans
kirche
##bibliot
nickels
1970er
gusty
320
##emment
erkla
##leiwen
aurel
lionel
flavio
##iehlt
baast
erauskoum
antweren
verschiedenen
paraguay
schaf
beschdref
attrakt
paraisser
##aller
biergem
blesseierten
gleewe
erom
##iliseiert
repress
sucre
klatz
encadrement
ra´le
##obile
jeudi
##klaus
velof
populistesch
ruder
renseigneieren
bakterien
elch
nationalekipp
kulturhaus
mitglied
side
##oltz
##ppchen
fritten
besserung
efficac
schweierpunkt
tabellesp
stockholm
fiffi
##ierker
verankert
dub
##sec
successioun
antenn
fad
##erba
viren
bois
statistesch
buergbrennen
stroosseverkeier
comptes
sonnenennergang
##reise
1937
##irez
mosl
hilger
jenny
hermann
virworf
hospitalier
##itaine
dervu
104
philip
malachi
staarker
teix
kriibskrankheet
verursaacht
ya
##usa
##ivent
vereinfacht
malta
##jhemp
##wahn
kannerbetreiung
versiounen
universite
murat
107
bestehend
tol
tankt
deieregaart
nobelprais
rencontre
##mill
sehen
arc
kasel
fonctionnairen
befreien
lad
popp
visiounen
psychiater
comptoir
provenance
baert
beschweiert
treinen
domineieren
zensur
wentger
eiter
##wu
eskal
spaz
leeden
highlights
wid
##kummer
##osaur
drauf
forfait
messagen
virbereeden
bewaissteck
somalia
fous
tariffer
baus
flesch
perseinlecher
palace
ieweschte
amgang
##maert
verstaer
hiirt
numero
cp
maint
fermeture
handbuch
christoph
neuseeland
teixeira
git
hins
##hungen
flt
##agert
staatssch
##klemmt
##gestellt
arbeits
resultats
facteur
buerglenster
kombineiert
arroganz
##osla
reimesch
epidemie
waak
neiem
##aubert
brach
vertraue
baibehalen
eilereng
lanka
haha
nass
blond
swa
neta
touriste
gewalteg
##kou
tradu
drag
klengsten
marihu
auswaerts
##hun
zustand
abonn
beruck
##asion
weiderginn
ita
locataire
mental
grausam
vainqueur
satisfa
db
nar
##fiz
ka¼n
experimenter
juegdschlass
##afrikanesch
nanzeg
##atismus
ecurie
montage
datebank
version
texte
eelsten
##ocker
schik
##deen
spetzen
woussten
mania¨re
touren
transit
donneen
saudiarab
letzeboier
##nst
##nberg
direktesch
karib
helzen
wensche
malawi
renommeiert
cra¨me
##h40
##ados
ausseminista¨re
universum
backes
parlementaire
gonzalez
envel
entla
remor
steftung
rolle
mailen
calais
agef
hank
##tour
akzident
ierfschaft
schedden
##efirma
ow
##rung
##rooft
##raichen
flbb
verbriechen
##egewerkschaft
verschiddenes
ecr
hurrik
amnesty
didden
gier
##egeld
nogekuckt
##wacht
wirtschaftskris
erkenn
gant
##meieren
sector
beschleissen
francoph
dschungel
nig
##kult
paiper
hames
affekote
behandelen
staerkste
bewaertung
desweideren
##egrupp
geheiere
pra¨s
amusant
gefla¼cht
heter
##aust
##amme
virgeworf
arenz
##attacken
fransouse
breisseler
willib
emgebaut
chalet
##dimus
derby
interne
165
professionellen
biod
bezeechnung
munnech
gonnereng
nordirland
vra
zuer
loo
moham
wunnenge
jr
kenen
biologesch
techniker
firmaen
grafik
erwuesse
miserabel
jeeweils
wonn
##roit
schlank
mannste
besoins
decouverte
bundestag
marihuana
stamen
amplatz
sauna
regierungscheffen
teletra
kilomet
jurid
konsumenten
awei
pouss
desaster
1914
duarte
direktiv
impro
munchmunchmol
goldeg
herrgott
presseclub
kaschtepunkt
skender
vient
##vik
gewer
##faul
pourquoi
shirt
##geben
desinf
##apen
depot
repond
guichet
##resse
##100
devis
##iez
valor
bestroft
existeieren
stoffel
viz
armes
absichtlech
hepp
audiovis
uschleissend
jahres
##ulech
doppel
##angelen
virprogramm
moreira
entstane
donnerwiederstatiounen
dikkrech
verdachteg
chifferen
recycling
wirk
##iedem
miami
leisunge
lutgen
sond
##stin
pausch
finance
accouch
kinnik
subsiden
schnappschess
verspillt
conditioun
biisser
kapabel
machado
lewand
ofgew
permet
breuer
ruanda
lueden
waard
plac
kindern
fric
##feren
kompositioun
##geheien
multi
speide
hellewull
deitschen
rivera
##houschent
zesummegesat
##aw
##ynd
dengens
schle
unzou
unzesch
##estens
iwwerm
tomaten
armee
atomkraaft
seef
artiste
alleguerte
kampft
erreeche
equiliber
anony
evp
extremen
superjhemp
starkt
klimap
antwerte
hallewull
##srot
##baueren
plafong
carval
strom
weyrich
meur
##kollegen
verflicht
##ingo
nedd
questions
clees
cig
opnahm
passion
grippe
honora
jiddefall
tresor
eendeiteg
chanceglaich
zar
1936
nahr
leise
emweltschutz
lenker
gaard
1200
mediter
crew
etranga¨res
kaisers
gaarden
entschellegen
velosport
##lautern
delhaize
vend
##ierd
beschtens
uerdnung
namibia
pid
tum
##egra
kong
regen
theat
##ypesch
preco
neidege
collectif
around
feinst
##yes
##jik
##flo
##igny
gilson
promoteuren
da¼ss
lucky
ti
besuergt
128
1600
india
geschecker
hirsch
travel
raichen
eleiansdo
probla¨
prioritar
unzed
zuglaich
##examen
virkomm
##leisen
groussgaass
guernet
oofsch
nierft
ennersichung
sarl
konferenzen
##blieder
soziall
impressiounen
##cteurs
bijouen
sitzung
indie
drukommen
mccart
wanterpneuen
haarder
##open
programmeiert
breifdreier
philippinnen
stephan
##hhhh
zuka¼nfteg
aoa
##alg
ha¼
joerelaang
avoc
##veco
kloen
##ycee
ugoe
iwwerraschen
##babwe
watfir
aquitaine
##graifend
carvalho
##zia
##ebas
flich
aconomie
stierf
mosamb
symb
enfance
ridicule
supermarcheen
till
##fern
##reesen
glaub
##ologesche
reckelt
inviteen
pianist
cardoso
virgeschter
maintenance
nomme
schild
remise
zukunfts
aischer
selbstmord
eesbech
verstuerwenen
##ria
##icer
estland
nidderaanwen
##sleit
##situatioun
##agre
persein
automobilistin
rg
##abbelt
##anneren
mettelamerika
etaient
olivenueleg
chip
1927
portm
gastronomie
ofwiesslung
willibror
wah
##ensiounen
clibb
serb
aarbechtsgrupp
staerken
##luss
##inaire
##read
##ekteur
soulig
jeje
begleedung
aarmseileg
ha´tel
trophy
schaiss
entspa
infektioune
##ything
##comments
jalousie
teletravail
##glich
geisdref
##eenung
massive
klengb
kraizwuer
quarter
ipad
##defizit
bofferding
kraizwuertr
aaa
kett
##baal
##zezeien
els
pep
advents
##erf
store
##otest
ausgank
kommission
eglaich
##shire
keinnt
kolumbien
skenderovic
wass
schaul
eurovision
0000
##moie
travailler
samsung
thematik
##samt
lars
##folion
aktiviteitsz
mongolei
virzebereeden
idem
traiteiert
dropp
worden
mathemat
##berechtegung
serena
saturn
##not
##gerber
mettelfeld
substanzen
helleng
unterricht
enorme
bosnien
fug
##gri
wais
##hoven
chinesesche
##icki
##bewer
disp
normen
##zeie
rentner
drive
schwedesch
belaaschtung
kommend
debatten
concerneierte
##adox
##onst
muratovic
dign
diction
derba
airlines
widderstand
brecken
arz
erausginn
gluck
sauce
bluddeg
##ieben
schintgen
##olf
##izeiere
betebuerg
gesondheetskeess
buurschent
attend
999
gomes
nina
iwwerdroe
turbul
cathol
meenungsfraiheet
tell
##uewel
##zeweisen
droe
winandy
downlo
ausstellungen
erot
lellgen
spell
abord
haaptstrooss
hoteller
credit
papua
society
labrad
kriminal
titelsong
prisonneier
bigel
##neg
##feierung
beleeen
sambia
##sparty
##periode
ageholl
tans
##agei
freih
agovic
demokratesche
zesummefa
gid
##liesen
grin
koordin
trifolion
follegen
gespaichert
spektakul
micky
oll
##goung
##rongen
##kreteiert
gejaut
aarb
agesp
paye
katre
efforte
##enteuer
nopeschland
1990er
siebenaler
chimie
##uercht
greis
trace
affairen
bowie
laien
suitte
kramp
greisseren
coureure
entwicklung
##zonen
##wenscht
akteur
beschloss
jorsch
##ologien
zech
##seg
deih
##laafen
isbn
fleie
##ivergen
games
magaz
bundeskanzlerin
sty
bedeut
bietet
rihanna
dleit
##orff
##eschent
bauler
penal
iwwerreschter
killer
##mobil
20k
fly
bleiben
schlamm
startseite
stauen
werft
##bredimus
why
gepack
##kontrollen
paschteier
##verschm
role
##ily
grun
kenntnis
tweet
baustert
immedi
dion
opsch
greta
franzen
##enkelen
chamberpresident
nordma
kommunal
mosambik
jost
onschein
villercher
lukas
##abe
##weer
##geschlecht
##reseau
gromm
altersheem
misar
emgedreit
##rh
opgegraff
alueden
villages
cow
fluchtlings
eigenen
erofsangen
##esall
##urb
spott
zaitalter
verschiddenheet
glyphosat
dekanat
##weste
allenster
deshalb
##iseierter
erny
schwieregkeete
fiat
branding
ulei
##hat
##ido
param
auft
##ammt
steierlech
fanf
noperschaft
rifkin
##imool
1933
##altungen
competen
russescher
weisgerber
bruyne
schaerft
tensioun
##roy
zeenen
##ichel
##spot
enneschten
manternach
beza
kampfer
attacke
cherch
cha¨que
##konditiounen
##sphas
fluess
##uller
verwonnert
##ewiessel
fundeieren
rechenschaft
found
envis
heischent
emmerhi
would
lec
shir
onglecklech
certific
willibrord
ib
##04
##gebaut
heil
chrest
triathlon
lauschtere
mountainb
##kopplung
##stechn
parmi
tempor
sabotic
sturm
orthophoto
reien
getta
esoulaang
notze
liberalen
konn
etats
##assel
glaat
monteiro
hiweisen
welch
beetebuerger
beschellegte
urbany
lewandowski
##member
dia
gegrengs
##plusert
hygia¨
##light
1928
##ason
schlie
schmier
golkipp
turkei
trouscht
##kongress
ewer
fp
sites
##massen
##reiche
neiegkeeten
bertrange
citoyens
zouneigung
##heieren
##gekl
##vereen
command
##ennere
##aaschten
##umping
walf
aschrank
fantasy
industrielle
adolphe
##ious
laacht
geige
dreche
berbuerger
charges
jiddweree
##konft
##iww
unzest
##year
restriktiounen
gidder
villem
domic
clierf
ag2r
sozialist
muhovic
enquetekommissioun
keefer
entschleissen
##scheinlich
ombud
verstuerwene
gat
##anzelt
##daermooss
samoa
vitamin
tgv
##esie
laan
depend
ennerscheeden
wollekegem
fabrikatioun
hammelmann
gank
vort
klamme
erwart
televis
ngu
haiti
dys
dichter
##nl
pless
markt
regrou
versammelt
biot
acquisitioun
glecklecherweis
kraizer
assistance
autonomie
medecins
north
allkeier
inhalter
exil
ofk
trakter
gauche
beschrankt
israelesch
##cu
##blo
zeckt
abenteuer
##ipras
soares
monarch
instanzen
ramde
##gedanken
katz
##rant
##mee
wous
ofkomm
colbach
kreemchen
chemeschen
paradox
quoten
108
terri
##sman
kueb
cecile
resumeiert
tavares
petzen
##eischten
hof
complement
situatioune
plant
dipla
neuer
erfeiert
changeiert
ugesot
katrewang
3er
anek
##dersen
##spe
##daul
##zentren
heav
apoll
vertraut
electron
mccartney
celine
##ssecteur
delo
schuck
spart
##ulin
einst
waats
##weltmeeschter
empfanken
anf
##anni
stim
##ands
gewesen
secteuren
##modell
filetssteck
alphabet
minn
stungen
weiderentweck
findet
fierwaat
process
individu
##helikopter
angelsbierg
nenne
opstellen
##enswert
praventiv
ursprong
comte
nummeren
ignoreieren
ank
##uma
demol
antib
jorzengten
wirtschaftsw
lenksen
autobi
dokumenteiert
range
##eihen
ongesch
mitarbeit
were
colom
sa¼dkorea
floyd
registrieren
alzheimer
eit
##bart
atteint
##atisch
privater
sexual
##sverhandlungen
maa®tre
liewensgefeierlech
pafendall
envo
laschter
##dovic
differentes
drepsen
ain
hens
woen
##geflunn
bebee
plann
##raicher
moritz
preisser
hypot
religion
wantz
wiltzius
##strukturen
raisonn
##iiiiiiii
##kins
##itute
##usement
cocktail
popula
interviewen
optesch
mathes
perspektive
essentiel
lal
##infra
##ermaart
messtra
reklammen
relevant
okay
##ssprooch
stacchi
##verst
iwwersetzung
gans
oce
tard
andeem
verfa
beiweng
zoustemmung
##group
nationalem
##effiz
precoce
keit
leste
zelter
##mess
gezi
##fluch
##fried
usbek
##produkt
repercuss
rag
virverkaf
##logesch
jeer
wichtegkeet
##sbesch
##ignes
moyens
##persounen
fotograph
cuisine
##dens
duerchsichteg
getrueden
korrespond
dodurch
incident
6000
##becht
##esou
verreng
duerzestellen
sensor
virbereedung
verdengscht
burt
jensen
erleis
ariane
dienst
responsablen
nordmazedonien
enfin
alerte
##dese
116
seite
diversen
griichescher
##andidaten
da¼sseldorf
unzekucken
sac
paar
duerchgang
empech
delikat
telefoneieren
bobby
##iday
fetteg
##drecken
echec
meia
auszebauen
##bereet
wouvun
fasch
glaichmeisseg
serait
##rikultur
blesseierte
elektri
drechene
##skirch
##aar
##esammlung
baache
merite
ufang
doktesch
##ioen
##ga¨ne
aneng
zeechnen
name
resulteieren
demokratescher
debatte
astronomie
##communique
##pil
##iddeg
pard
dreift
gleichzeit
##coursen
benzelt
empfang
arrangeiert
tanken
##echan
##waass
fonkel
kommunik
identiteitskaart
baastenduerf
ole
##chron
##inam
##etteg
heiz
diagn
cost
##echnet
radiostatiounstatioun
bestehen
schifflange
tornado
ny
##urm
##eep
glaf
develop
echo
gra¼n
adrovic
froot
##platzen
handlungs
agrikultur
dimmerstatiounen
flores
consommation
intensiteit
reussite
##meint
bekl
souvent
##oche
low
##bres
dict
any
erfindung
spion
onz
parties
gouss
weer
##tracht
kolleegen
schweierer
duerchschnetts
muttergottes
soch
##wueren
saat
na¼r
gerade
genervt
##passe
##oppelt
komescherweis
novak
gleeweg
frontaliers
aans
##ortement
sportminister
prevention
ofgeschnidden
##bleiwen
celt
##zweck
##spuer
bouillon
mouveco
brucher
resist
bereiert
wehr
verlueren
##iedelen
statuten
##zere
adressen
verloschter
encadreiert
trakt
##zelter
italienescher
finanzieller
prozesser
duefir
geleenheet
nata¼rlich
blouss
gedeeft
##stock
ausweisdokument
wisen
prouf
abseits
poulet
ukennegung
a7
##uung
anbestanneg
pioneier
tansania
ramm
##ding
verfe
##ameidi
haate
learn
betroffen
zreckgezunn
demonstratiounen
tatort
##alon
##urgie
explizeiert
kaiserslautern
stru
obs
##iichtung
british
dommheeten
ajo
cik
zooss
cout
lern
pissen
tages
stonnelaang
agedeelt
schockweiler
italie
averstan
partenariat
zousoen
##lachen
##eigert
##quant
##leschte
goodyear
##wiert
baken
karriere
logements
europaeschem
magic
konkretes
sws
nguyen
##wick
##saut
petits
leifste
plausibel
oflaf
glaichen
verbraucht
privatwirtschaft
omn
ups
strukture
amstand
##programmer
begrenz
intensivstatioun
mathematik
mousse
ouster
##deppen
heizou
krankesch
##sprechen
geklot
falscht
somit
siten
##eiern
leiht
altwis
##ippst
campus
veloscoure
rasque
erfuerschen
fenneft
mits
voice
reaktioune
behennerung
classes
tin
##nik
plans
akten
siehe
##dress
presumeierten
agricole
tsunami
##lein
1918
convo
geleegen
##vora
erweidert
##ansport
spin
opgeklaert
##ustrieden
##pomp
##preis
klauen
collins
gratuleieren
##wurscht
stenk
##ckes
iwwerloossen
origer
wiki
wessens
menscherechts
extreme
erneiert
galaxis
arrogant
anengems
lant
##yll
speid
##ebl
entourage
orban
repert
speideren
sujete
##initiativ
moldau
verant
durno
impre
##jugend
bungeref
neugu
vr
inkl
luka
asile
erwarden
lyceeen
salzburg
fraiwelleger
opgeworf
##etiker
maja
baschten
##efin
##gring
kontraproduktiv
nazien
zypern
wossen
zun
abo
##ateral
verlounen
##linder
junioren
gebast
surveillance
chefredakter
ramdedovic
rester
##ether
##faange
schwaetzen
anglais
stacchiotti
onwichteg
iergeren
verwiesselt
voix
ramirez
enquaªteur
##mil
##itaren
alumin
bra¼
phill
dani
boufer
vianden
maschin
baileed
ausgehandelt
nomm
##mools
beeler
entg
taªte
durant
kaerch
strecke
tierkesche
kunden
mantel
emf
fahrt
natura
verleiere
legale
a¼b
acht
##disk
##bomm
##fan
##orung
incl
kiischpelt
religioun
benutzerliste
feltz
deontologie
gord
##din
pedersen
labrador
hsv
alwen
##svis
mulles
constit
bauschelter
adaptatioun
certain
oeuvre
blech
fellt
##wem
siwen
##issa
gebiert
organise
##stroossen
behapten
immunsystem
kastreierte
titelverdeedeger
cikotic
##riess
auszeb
usech
deitlech
rietspopul
gesondheetsminista¨re
bidde
##ism
derduerch
funf
modifikatioun
saudiarabien
kutten
##rack
ausverkaaft
biodivers
vague
wach
autant
landung
##egrenz
techniques
ministres
whitney
mannequin
nah
quoi
verdr
wiener
bildopbau
melus
identite
yes
wiehlen
entwecklungen
ulc
facto
##ential
##matesch
greiv
mauret
helfenter
##iennent
parlaments
liichtem
rassistesch
viirun
deidlechen
empecheieren
maark
##estival
inklus
leiren
muslim
##gemellt
##diff
##handlung
timor
feiz
##interess
heijem
##bot
neum
##ontrakt
erofgefall
memorial
opzeriichten
hygiene
schandeler
doft
onsecherheet
waarmen
sugger
1921
verlount
familles
sonst
athletesch
aasselscheier
missiounen
gielen
perl
surinam
mettwochowend
gleckt
concerne
participation
ubelangt
marshallinselen
romantesch
verduebelt
css
##gins
##androck
##bag
atout
##kaschte
eraussichen
vib
clar
bedriwwen
concerneierten
1960er
scheierhaff
immatrik
jupiter
sacri
musk
recours
fiirwaat
expertise
##aute
eneen
enzeg
sack
intoler
grandes
greissen
restaurants
##rans
zereckbe
simbabwe
gilt
##stuff
ofbremsen
triple
kommentare
autorin
environ
jubila
coa
deputes
##stoder
renovatioun
sprengstoff
swasil
##nement
##var
knuewel
ded
faassen
selektiv
reprasent
morgen
limp
baschelt
magneit
fdp
polyvalent
regirung
dommen
tc
##esteiert
##endo
gewasch
staunen
affront
grenzt
bemusteren
piscine
steeseler
eestemmeg
reegt
trotzdeemt
elv
##fast
##eilung
barry
gibbes
verurteelt
##foire
##vil
neirens
gerode
lasslafen
##ench
spater
prolog
##ingle
##skar
##ecter
palm
deifferdang
kompenseieren
aessen
ibra
##oz
##risch
##jor
meenungsaust
erwaarde
##vollek
mauretanien
1m
kenzeg
sozialistesch
260
impfung
schleift
mb
##regelen
offentlechkeet
##bad
##eicher
zougesch
##ifiz
##nac
bezie
heroin
##mettes
preizer
fielsser
application
trouver
hausaufgaben
##aint
eschweiler
gepreift
verannerungen
zeimetz
wuestum
allkeiers
eechter
togo
##reider
##quip
rastoder
keup
historique
waasserm
gemeckert
aluminium
ethn
lehm
infrastructures
neuguinea
hn
unan
naert
jager
fortgefuer
voit
auszeschaffen
fotografen
kaka
##basis
ra¼ck
grands
biergcourse
fortschretter
reprochen
poursuiv
##klinik
fete
tuten
##cha
##ebet
adele
beidler
klaushaff
melodie
zenn
bakes
ennerhal
##punkte
propositiounen
fotografiegraf
ausgeliwwert
elektroautoen
gewiercht
remorque
rug
rezenter
aktioune
decor
surfen
jugendhaus
folscht
ehr
einsatz
graas
##ainment
bekemmert
walter
bireler
beyonce
tennisspiller
##table
##geescht
euga¨ne
eltr
114
isg
waasserstoff
kiew
##appen
##ients
schetter
meinung
340
##pur
beess
##krat
elefant
aul
ic
##ouche
##schaf
health
restauratioun
interpreteieren
kok
##ionell
##ambi
uganda
vieleicht
maa®trise
##ebasket
hierrennen
verginn
philosop
baifuerer
##order
unvun
##print
kreesser
viktor
dreemt
manger
ergra
dassen
gefleckt
fraiheeten
hannerloossen
weitem
parlamentarier
dohirennen
turkmen
veloscoureur
380
##walt
chamberwahlen
zentralafrikanesch
orienteieren
swasiland
rnt
##pri
anenee
presser
zaitglaich
##eiller
##rechnung
##alo
iwwerfl
ausseren
interpol
##geheescht
patroen
zreckbe
konstat
vierun
rondel
degout
bestrofen
gautier
schuckeleg
pamp
##delen
##atierlech
##embel
braderie
capital
steinfort
tschad
ludwig
jaitzen
gedo
geschm
ofleeft
##landschaft
penglt
saibene
##sbech
ennerscheet
betriiber
sudsudan
##kraut
fanny
poursuite
##oof
unene
coeur
allerbur
omega
tadjik
dezent
etant
doivent
##ivisioun
1934
solltten
afale
farw
viellaicht
fedil
wimble
goalkeeper
##croisiere
eichten
richter
communale
unhand
##blick
gewonnert
gebucht
accorde
##sbet
plakeg
ressource
clairef
bapt
xen
marel
ofbau
ofzeginn
droleg
jaqueline
gedreet
urineieren
extraordin
differenzen
kulinar
schelleren
descente
uleies
##legen
aserba
ofgesat
hierlafen
orle
bierden
stierm
##projeten
pompjees
##iments
traditiounen
harel
festzestellen
##key
judo
eesou
aansebuerg
2t
##rass
##wenhaff
kierche
finanzeierung
edirekt
company
##ionnel
administratiounen
niederanven
##eschend
virgel
geschleidert
depass
christina
wallonie
##iant
##eselt
gaal
biermereng
kimi
griewers
assel
##reisen
##aros
schess
##utung
mathalen
verha
##laag
##vey
treiheet
##idsch
##einander
duett
##rullen
drenke
strauss
##virun
##own
##vollen
felipe
raumen
hydro
boma
onbekannte
lutz
n7
##rout
alschent
fritz
zouver
##odie
buchhol
lancement
machine
geknippst
##nnnn
financier
lomp
##unda
##egeb
affare
wirtschaftlechen
facil
prestige
##wampich
ofgehale
herren
zesummef
californ
assistent
kommissarin
kadaver
biss
schelder
proce
gewasser
plaza
bewunner
quartieren
verhandlungs
produktiouns
fira
beelen
soutz
mind
gerutscht
populisten
which
gemeinsamer
ironesch
opgef
haarde
chen
concili
lassrennen
greatest
genschteg
##brecken
##endem
reha
relegatioun
rechercheiert
ida
jidden
##set
##gericht
quent
daischteren
vas
##been
kaarte
ordentlech
##pad
stong
doudege
eeschweller
phenomen
##daitsch
anzestellen
stach
ideeen
##medez
frapp
karls
barn
typesche
japanesche
nombreux
##bedarf
erwuessene
beaflossen
usbekistan
verrengeren
pakt
##quellen
liebes
##host
statue
##dengens
bemeit
nohaltegkeetsminister
faute
##zespillen
jongges
##parlament
kriminellen
infirmier
rip
haard
terro
grandios
bicherdeeg
bannend
bridge
deiten
##saison
beding
forderen
freund
spetzepositioun
##ba¼ro
##greisst
mechs
festsall
barel
roboter
marteling
utopolis
##logie
##dausenden
##zuga
##aph
freizeit
relieise
much
##arsch
datei
ausbroch
##firmen
versot
transf
perfekte
cinemat
dagsiwwer
draierkonferenz
ct
zwengen
bestellt
buerschent
participanten
snct
orleans
czuga
##leren
desir
sammel
strang
complet
organisateure
sprinter
akut
refuseieren
##hanner
erhaalen
spende
##quell
##treng
discours
reflekt
cdi
crimin
leinen
##mont
##olis
nachemol
plenneren
##finden
importeiert
toulouse
leiner
##irtschaft
##enges
erha
kloren
ra¼
iwerliewen
##sketten
##itzt
vallee
da¼r
virgeschloen
betteng
reduktioun
akafe
brasilianer
gilsdref
registrei
digitalen
ricci
ofstig
felicitatiounen
banzelt
kapt
veierte
##vide
joy
##gebiet
gebuertsdagsparty
everling
aischten
frustreiert
tonga
vital
##cation
bedenklech
stackwierk
ra¨g
lamadelaine
##histor
##rages
##essert
racc
antis
koalitiouns
sympatesch
aktiounsplang
untersuchungshaft
schlussfolgerung
##enns
##mail
##gehol
normandie
koma
hige
scheit
##reiner
1929
parverband
trailer
niveauen
##eigneur
aasselburrer
emdeenen
##allem
abbl
210
untreffen
kurt
lokalekipp
assurances
##direkter
aasselbuer
foussballspiller
techno
##mecher
##zil
alrodeschhaff
enthalt
parade
resolutioun
kierzen
kulturfabrik
botzfra
jardin
branebuerg
bigelbaach
pict
apess
diplomer
nodem
##beren
theatre
coff
typeschen
##faassung
##reiwungen
zwerg
ajust
ji
##himmel
##imir
##beruff
kack
1800
##athie
globale
iwreg
kanadier
connaiss
salomonen
quentschen
enke
unzek
ofgas
flill
bisher
lesen
effekter
salairen
pressef
iwerdriwen
lyn
peck
gron
##brems
enregistreiert
tadjikistan
##ellech
gewesser
##lerin
alkoholtest
sommes
diskriminatioun
etr
ergraifen
##gencen
aktive
guten
krisenzait
##wegs
inspiratioun
eegentemer
eagles
##memberen
dees
gera
##arzellen
akust
##anderer
restaureiert
therapeut
isolatioun
kanadesche
subventiounen
raiche
milan
airline
familj
sonnegem
exposition
matzedeelen
dsch
jungen
##eno
laach
moz
recol
privatpersoun
gepetzt
virgesin
sess
wem
##a´t
opmannst
ausgeriicht
##imming
kukt
dessert
opka
proxim
deems
aktiven
sozialt
averstane
banne
alben
faass
zougesprach
##eisse
24h
ensuite
demokrateschen
##zedur
daniele
toiletten
##laanscht
hagen
allemagne
clubs
verzeien
##konzern
tsipras
turkmenistan
duss
##gre
##stes
almillen
##qua
flyer
schwief
regierungsparteien
chreschtnech
bamerdall
##zeiten
camera
vernissage
bollenduerfer
mau
verantweren
iwwerhand
onwahrscheinlech
##baum
duerchgank
ofgank
gerabbelt
sieht
antig
270
hype
gezwonge
zaitlech
indice
cutd
moderator
communes
epicerie
geleegenheet
##meth
##cheng
schnee
steiers
defiz
liberale
rieseg
rise
ritch
wine
##went
spo
pac
1924
##nobel
weltchampionnat
00h
iergendeng
luxemburgs
allerburren
afless
geess
baascht
geli
garagen
##icker
namens
portant
investig
spezieller
permanente
##bezierk
heavy
enormen
amm
requis
##ulatiounen
caisse
centres
zesummegeschafft
ler
##boot
amour
##minutt
saitewiessel
android
##gehalt
itm
institute
szenario
octavie
karibik
beesslek
agress
##rentree
##fels
plennert
##enses
miseler
bosseg
mum
xx
plut
ofdreiw
groussbus
eleihin
metalb
rally
regelmeiss
pent
##elu
schort
steiren
zoustemmen
bekennt
niemand
jane
sammler
enqueteuren
firme
becken
##ilafen
spaasseg
besonnesche
wimbledon
stevie
spazeieren
souweit
decisive
brosch
ambitiounen
autosaccident
gonschte
enregistrement
bakesmillen
wecker
##ript
##annerung
schneit
##zesp
biergof
schuel
##ulte
##otta
medicale
angs
ensber
kuffer
representeieren
franza
##iquen
iwwerleeung
diddenuewen
klengbetten
cube
##ivement
gemet
antke
dohilafen
norweger
solche
biwesch
##emenschlech
berucksichteg
ike
##schrei
gewunnechten
accouchement
zesummefaassung
sache
hierkommen
boucle
pompel
kandidatin
##ladbach
##bibliotheik
##hos
schutt
##genommen
##dafi
zoudecken
schwesteren
impressioune
materialschued
##witz
##reemt
antwort
offeren
gekoppelt
afeierung
spetzematch
##szocker
suspekt
##auffer
avert
rechtlech
herrscher
erkenne
innovatioun
reliounsunterrecht
recrutement
##ng
opzek
##spur
##imon
##faarf
##naires
##finder
##fuere
directive
##eig
thion
staater
staatleche
verbal
remerc
hero
soleil
outre
sensation
vivre
fraktiounspresident
zivilgesellschaft
ouere
##masseg
bleesbreck
schortgen
kot
##emor
mardi
ofg
newt
asazzenter
schumann
moude
gesprengt
ekl
beleidegt
##empo
angsber
beschaftegungs
flaisseg
zellen
##scheeder
pain
sofort
animateur
iwerzeegt
research
pazifik
ibrahim
freckt
oubl
uw
##nidde
##imo
boston
equival
respektive
km²
trainings
tankstell
boul
una
##gespr
##uels
kompatibel
asylanten
elektronik
interveneiert
gronda
entiteit
attitude
jede
##versuergung
verbreeden
boxen
diplomatesch
aasselbuerer
katastrophal
evaluatioun
ounie
linguist
fanfare
uplanzen
vip
##auchen
##atte
##ennumm
exit
spilldeeg
phila
meder
definitive
allerbuer
impuls
konserveieren
lon
##abes
rechtfert
robot
halsband
beruhmte
wengerten
tie
loin
menschleche
118
juge
sociaux
##bridge
spatz
##ienen
berifft
majoritar
folgenden
trennt
braut
keesen
psychologesch
swimming
##eesbech
truppe
geflucht
beaufort
employeen
##resultater
dfb
souhait
loeb
inval
gekennegt
teher
##eraich
denschdegowend
publikatiounen
financia¨re
prisoneier
##artikelen
reelle
klengste
passwuert
stars
iwwerschratt
individual
ausfeieren
erreicht
zweschent
szeenen
kado
wib
wannste
tours
cliar
occasioune
blummendall
elchert
##egesch
chanson
affich
##rainen
defi
osteuropa
accueill
coiffeur
reckgangeg
chann
kongo
119
gesondheetssystem
ellenger
kommunizeieren
kolon
lameschmillen
vergiesse
ritchie
stuer
nob
guttgeheescht
nationald
feig
beobacht
hp
kehlen
##konzept
versteht
angebot
stunden
##ammelen
komeit
arenzen
genannte
klacken
kraischen
frigo
auaer
gereieren
coord
beschweieren
royale
symbolesch
aasselburren
gung
hous
##stied
##spigel
1926
##akel
##bremst
afro
championn
geklart
demonstreiert
pinot
pestiziden
eux
aister
spat
besteierung
##smodell
turner
ausbilden
fraigesp
sagte
1ten
gates
##checker
dack
iwwersinn
enthalen
kreuz
fredd
diverse
deemoleg
angsbreg
bewegt
uklo
kulturelle
hesperange
cavend
baertref
eechterno
pul
fash
moin
##sack
markant
conseilleieren
weimerskirch
bard
engt
##wenig
##gaart
eenzeger
teste
miwwelen
blaaschent
ennerschreftesammlung
halbzeit
##orienteiert
verfeelen
leiwt
beluecht
erofgaangen
oppositiounspartei
magist
spirou
ofzeschafen
gefeierlechen
eidelen
grondsatzlech
##mans
deville
##ebeen
inspection
suivant
certaines
romp
yos
##ssituatioun
ausfall
bringen
gebeier
kolonie
expose
dirigeiert
muck
ufa
beandrock
1912
##asso
cock
housener
ausfeierlech
spekulatiounen
liewensgefor
academy
eicher
##mmer
##schend
##lassen
sieg
pourra
##umpf
parkplazen
equipement
impressionnant
preizerdaul
beelenhaff
3a
beng
bike
hellen
schicht
matbest
aldr
noop
prend
poesie
woaren
portes
##fahrer
geriichts
ernimmen
konkreten
##ritten
zesummegestallt
protokoller
gebastelt
teheran
##oleiss
##esselt
evo
##flug
ufanger
effikass
##astert
hallefinsel
flessegkeet
betzemillen
essentiell
fert
gewetzt
most
gebuede
shit
asthet
hyper
csl
weihnacht
dill
kanzler
tach
deil
wahrscheinlechkeet
eye
unzer
grennt
##prou
biergerkraiz
boukel
wirtschaftleche
kalorien
konzert
vermescht
zersteierung
personaliseieren
scolaires
griewerseenung
##erien
emginn
lehrer
##saarbechten
petitiounen
akescht
kenschtlech
##doten
anzek
##iona
##endung
leicht
ierwen
zurich
aleft
showroom
##otos
trent
##aktiviteit
gaddafi
cremant
schlappek
lengler
freitag
anzef
geckeg
allefall
warnen
lehr
ugezunn
ugepaff
hohe
champs
##besetz
eroff
rullen
biwels
steiererklarung
dent
##eschbech
1943
hiersteller
terrassen
fatal
syresche
alldeeglech
boermereng
privatis
##ictioun
olmo
sociales
actual
ansebuerg
dippach
metalbambi
recks
cliff
waissem
afeges
boursen
copy
irgendeppes
vauban
planning
groen
##itie
fron
zouvers
136
row
vielfalt
honor
promotion
kulisse
opgetaucht
beweeglechkeet
jovi
crow
ruin
deuxia¨me
##burgring
eyes
ennersichen
spezialiteiten
baham
1932
##sko
parkplaz
legislatioun
##ranken
##dergrond
ocha
hugh
demission
##ifiques
##gewielten
salariat
schneid
##manner
gescha¼
staatlechen
vox
##effer
laschen
couren
privatliewen
iergendengem
##atairen
schemp
entam
siew
zerveiert
nujee
felschdref
himmels
nd
nons
winner
##alung
laden
##anto
into
##ske
gewessene
rettungshelikopter
orchestre
kneppel
longe
onuerdnung
sad
charakt
lokomot
agefall
landeswait
nacher
warschau
gouscht
conjon
##wais
##iful
crazy
##splant
helmut
biebereg
solutions
basta
klient
besserer
niemols
lateng
aisallemandanglais
dialekt
temoign
zemol
##vum
nok
gescheie
bezunn
aktiver
homo
zersteieren
debatteiert
##gesondheets
couvreieren
beandrockend
cita
##kg
##kk
##reif
wirt
draif
koe
##smarche
komiker
gewielte
bilschdref
sanitaire
utilisation
invitee
##ected
##kab
opgin
##omite
atypesch
marqu
##rup
schoof
sonnegt
skulptur
bt
##iad
##sons
##formatioun
verlangen
##weisou
roses
bicherhaff
rentabel
spannenden
immigranten
tapeit
rha
##ipa
##fahrung
hilf
karlsru
kutsch
##achung
brem
beschrued
##anderen
##uru
iwwergangs
abge
schluck
roudem
##mpft
aktualiseierung
tankstellen
records
##aven
stere
kran
brattert
controle
nidderp
hiire
schlofe
##aarbechte
bistroen
mayrisch
cabar
asterix
buchholzer
verdecken
##efr
zougin
carey
versat
annerunge
identesch
##dan
##fferen
harebierg
##empelt
oppenen
leonard
leiwsten
atmosphare
verbesserungen
lepschter
unanime
uv
##accord
klub
gudds
leeder
durchaus
aermlech
heeschdref
stag
##rein
autops
dachs
courageiert
chomeuren
fridhaff
raccour
eire
oas
infr
zuricher
multination
premierministerminister
##iquement
upassung
thionville
##loser
hautes
clan
biersch
arrest
verdeedegung
manga
fotomodel
fashion
hib
vereieren
##ffi
schoulrentree
hinaus
tabelle
ballon
letzebu
disposition
zylinder
buffet
ennerschreftenaktioun
spellchecker
##gerung
schaaf
zereckgraifen
halten
comics
2te
oeff
bletzer
belie
afric
lokalzait
iwrigens
verseucht
5g
##rons
assure
chac
gehuewen
graisslech
deierbech
klassescher
aarbechtszait
importeieren
bemierkbar
puppelcher
souveraniteit
gefeierleche
schreifweis
waakreg
caren
luef
za¼
neo
schwemm
verschleissen
landwirtschaftsminister
ausgeglachen
constateieren
bidscht
anzeb
##last
erduerch
filmen
zuruck
schwarzwald
##iivt
##ful
ausgaang
19h00
sinatra
forschung
##lacken
komer
nordwest
usprech
haag
rezepter
##bler
verkafe
impfen
enquaªt
erennerungs
fontaine
spiggel
fdj
coldplay
dust
sued
geneem
mettelfristeg
schule
wielerwellen
spekulatioun
bp
gedank
foren
halwen
##vertra
bommelscheier
korn
1925
begleed
secour
epoque
folgende
dresden
##wc
politische
##ash
luxemburgische
##wohner
biwisch
draibuer
##iwwel
dax
##lammen
virspronk
onendlech
##anta
geschaaft
123
verwonner
fantasie
competitioun
tiff
##eschung
masters
geriichter
##ezuelen
burk
begrennen
chiffre
schiffen
komeschen
welcome
speidere
prostitutioun
aserbaidsch
caus
##ziedel
oprecht
##erture
festge
schreiw
motoren
community
equipes
sa¼dafrika
valerius
draufelt
repertoire
schenge
sic
schwein
glam
##ibil
colum
administrativen
schaffend
bedenke
continuer
##ounien
verschwonne
schweess
digitale
nnte
##a¢
##uhr
berzelter
generatioune
mieres
staatssekretarin
##ekaul
fichier
##smesuren
weien
burer
installatioun
brouder
##orph
geschichts
opmecht
location
benzert
##sstr
##urgesch
sia
##abo
falleg
subar
literar
datumer
virgeschriwwen
##igkeiten
matti
bieschbech
tolereiert
chocol
cage
gued
##yon
##eiglech
konzepter
presenz
verains
##zeich
##aang
##itei
##otor
##deele
gewierkt
##tram
jeep
ustiech
knaschteg
##spolitiker
##vette
bec
hafiz
oneier
apart
logescherweis
jugendher
gepickt
regelung
cis
##pom
anda
##elementer
totale
lettre
schuedenersatz
##chengladbach
##station
ta¢
erheijen
erkenntnisser
630
dise
neb
##korn
##weinst
##entlicht
maast
zucker
said
aueren
ufuer
partnerin
tendenzen
deiren
##schong
##mauer
schmitt
defens
tierkesch
provozeieren
reiter
particulier
mousel
knuewelek
bahamas
funn
##ozial
##echs
##olle
entz
cree
ausgeseit
grosjean
brameschhaff
peinlech
##raift
gewur
2160
houschent
fuesend
teitsch
spagh
crime
##gezu
##terie
affiche
grosse
wahler
oktoberfest
unseren
fassad
pess
208
##quote
##ageieren
manuell
supert
##wandelen
famili
bamhaff
purple
acteurs
iwwerraschungen
ofzewaarden
##wunnengen
##responsabel
poubelle
cliarref
kens
rust
alten
domaines
bramillen
##brell
vergleich
##sblock
ecu
riwer
dinosaur
gatt
##core
##jong
verpol
bekommen
woubei
bewierken
trepp
empfind
betriib
ryth
unerkennen
zick
##rest
##echsten
sekun
2023
gewellt
secherheetsgrenn
beyeren
cavendish
cond
batteur
iwwerhellt
neuro
butschebuerg
brucherheck
agressiv
melb
##iegen
emkrees
rewenig
##leisse
bierkelt
sportaart
optik
theorien
ressources
laanschten
bip
brich
didel
##seil
amateuren
##endr
favora
quentin
museeen
acker
##fun
schelter
amuseiert
2050
virstelle
positif
rauschen
planung
planeiten
terrorist
onofhangege
stebens
recommandatiounen
nexten
neckel
3ten
eher
ausfaart
##verein
riichteren
##nationalequipe
oofl
souligne
##ating
enzwousch
lieb
nominatioun
namen
blai
pirat
##endaller
lenke
ardennes
##virgul
untersta¼tz
850
##job
##watt
##elange
derwidder
sacch
schoulufank
##break
atomenergie
package
stouss
faerte
ofkier
10000
##zeloossen
courant
eps
budap
stattfonnt
konsumenteschutz
##allte
kompos
altersk
ausstoen
ugewise
091
anz
deiwen
uniteit
bierkenhaff
premium
nidderkaerjeng
engagementer
philipps
greiweldeng
infizeierten
ingenie
sensibiliseieren
jardis
bleesmillen
fengeg
meteor
##xen
eintracht
109
kohnen
ursaache
classic
criteren
buddelerbaach
worm
nokomm
weltbek
extremer
syndikater
compagnie
aktiviteitszonen
etranger
##aueren
##erton
##unnes
ausgenotzt
handyen
bruechtebaach
rhyt
enquaªteuren
mitglieder
fraigesprach
mieder
##stesch
aushalen
knachen
erneierung
sexualiteit
##zeiung
chemesch
vegetar
boukelsser
kacht
ofzes
quote
rahm
##egorie
werder
##museker
local
berzelterhaff
##zn
##keiert
meigl
geisel
three
ouest
residents
dha
eins
muskel
keep
donkels
viande
recommandeieren
##raiheet
thilges
afegesiicht
erwenscht
geil
clientele
roosev
regroup
cna
##etor
##schwain
sia¨ge
gereselt
risege
hellegkeet
zesummesetzung
asteroiden
breinert
brichermillen
wuehl
aleba
##uld
schaar
posted
positiver
bouferdeng
niddregen
visiteure
ffentlichen
schwedesche
ustrengend
jengste
fluessweiler
fard
virlait
ofwier
zaitche
menges
mannlech
##flachen
reid
ta¼r
acquis
bref
hend
##fab
pool
beschutzen
repas
hoffnungen
##party
##rough
##donald
antoniushaff
soutenir
republique
bierschbech
kimm
laichen
rezessioun
feels
##smett
beruffen
iwwerstoen
verstaerken
gelunn
##atives
burfelt
sellegen
bik
##ety
beiss
biertreng
beglad
meinen
kloeren
retrou
walkampf
gefaasst
entfouert
implizeiert
biwerbaach
vergewaltegt
intellektuell
sowjetunioun
massa
gestoen
schaffenden
secure
perseinlechkeeten
hechster
##splatzen
aides
##kommissar
schmelzen
zam
doos
beholl
regiir
##traichen
##ippi
eddie
summerspiller
ordonneiert
nozelauschteren
##verschmotzung
subaru
pied
weiteren
##phil
verdreit
kommunismus
angeblech
hengescht
##esses
##ebou
leudelange
##ubis
deelzehuelen
explikatiounen
izeger
rendre
##annung
opweisen
##genannten
politisch
schwaache
deckkapp
ageschrankt
entbindung
nachhalt
##bereich
baigel
kauf
extern
##uedung
haller
dauerhaft
eesebuer
subside
ierm
##itaires
praventioun
kieren
buchholz
##a¼ro
knack
hrs
waissrussland
budapest
fuk
ogb
buerfelt
ameseiert
preziseiert
impact
uewerkuer
populaer
meenungsaustosch
schlappekino
##archen
gemescht
##ativer
wieklech
allerhand
rausfannen
schellege
professionnels
burton
sitten
werte
assez
abonnement
katy
##gefor
renggewenn
medium
transports
duebelt
gourm
matrous
nt
##szait
##block
matgoen
##urf
paix
ugepaakt
##echnes
oofso
geflu
trettoir
zeltplaz
clervaux
##jer
##ffff
integ
##waffen
placke
heriwwer
its
serveiert
verschworung
banqu
dienjen
amelioratioun
beautiful
librairie
arnold
carb
##ehr
##kilometer
geschafen
dron
nothing
should
larry
ofgesechert
2m
nba
taus
##roman
duerscht
##waff
gestreckt
straif
fuhrerschein
weiterhin
municipale
roosevelt
fee
##egter
##ettern
mette
zerw
225
associations
1907
slalom
##nometteg
condamneiert
cord
frem
##obello
gespannt
ronny
kloerheet
champign
eropgesat
prominent
wrc
gia
pia¨
tak
gesamten
##iga
geworf
idol
##agnen
normaliteit
breidelt
empfaangen
feierlech
jamie
trageschen
antibiot
spionage
deiljen
ud
deum
##isi
##ution
gestridden
filial
##angerin
fortis
##aischer
educatiounsminista¨re
aiere
heischter
bekanntste
victimes
astra
fuusseg
rept
saara
precis
bildgeshaff
concerts
nowues
philharmon
aj
weltgesondheets
##ministar
rappt
sudwest
buerschdref
machbar
fotografiegrafieg
infrar
kriteschen
##weekend
realise
israelesche
fraiheetsb
hetzen
##dellt
erfaasst
##udes
weilte
claus
bouferterhaff
##endreffer
kafkraaft
diskrimineiert
ryanair
astronaut
680
alibi
warnung
ausch
exzept
weltdag
grennungsm
ursach
##krankheet
haushaltszocker
bockmillen
foulscht
bedruch
fetschen
tescher
##rais
##uri
##loot
haarden
nordkore
maerzeg
ankara
##eschbur
matte
##erseits
marches
sonnebr
volleksvertrieder
english
praktizeiert
tog
##kandidat
##emissioun
##rager
alic
kaabes
evasion
##fehl
hilfe
##iskus
lenneng
lekt
##welle
##300
erne
nozekucken
hohn
garag
entrees
breedelt
renconter
grinsen
brouderbuer
vamp
##ramm
##urter
ongeh
kannerd
obwohl
relations
douglas
##zeremonie
relev
eewechgoen
raccourcien
dg
amplaaz
teschemenschlech
buroen
bomecht
ambulanzen
blockeieren
elabor
##folleg
##eleiert
##laus
virnumm
baist
brann
##elduerf
ofgesin
drenkelt
seehofer
raisons
dellheicht
gouschteng
bic
##oule
gefiddert
usb
nii
strategesch
krediter
elementar
verdeedegungsminister
austeriteit
hunna
##klim
gesetzgebung
edel
professor
loftdrock
societes
befannen
physiker
protex
prioriteite
bahrain
dau
##scheissen
##optra
quin
festen
reichen
##ushima
doosber
lintgen
ves
##ved
lak
##sprof
dian
selwergeschier
kannerbuch
tepp
tokyo
zolitte
municipality
bj
preiwen
tob
ope
hul
meiner
##waerten
nahe
straichen
glieser
malades
litterature
cornelys
tort
##ateschen
franche
bestied
brauerei
117
##exiko
auteurs
breim
ageklemmt
bierghaff
mandant
afrikanesch
eranzek
jumbo
gn
##bro
##atl
##kleg
mannchen
festleeen
acceler
natierleche
castro
##undung
steinsel
tolerant
##zocker
noriichtena
tanktourismus
diss
morn
##fier
##eierbaren
schub
stenkt
naturkatast
onglaich
universitat
landesverband
spectac
luxexpom
potenzial
##jam
lage
verscheet
##dialog
couper
smartph
antwerpen
##fri
gesamte
saiseieren
fuerderunge
caiss
baseng
security
greiweld
protegeiert
dictionnaire
luxexpomexiko
give
jemen
noss
uspill
weidergefuer
psychologie
educateur
ofzeschleissen
rv
##buedem
berdorf
blind
plazeiert
##gemeiss
recuper
##zuele
friessen
rumeur
##ifieiert
precaut
efforts
kache
##leschter
##fanger
sting
breit
extens
gefa¼
##zene
##ereffer
australesch
brandste
rennes
faszin
buckels
phenom
beherrschen
antisem
eenelter
inond
zouzemaachen
elweng
##profi
aerdgas
insist
rollenger
##ummert
cep
521
##atus
##rose
zwa
ofgelaf
pardis
regioune
grossen
kritis
peiter
kommissiounen
youth
pon
##engchen
emzebrengen
schoulkanner
iergent
##hoff
explodeieren
beruffspompjeeen
vdl
##tir
1923
samschdegowend
donneschdegowend
prazisioun
behidden
bomillen
brotebaach
avaient
regierungsmemberen
dschi
moulin
hueta
##ppo
##eeschtert
30er
gonschten
apollo
saccharos
rup
matgeschafft
meisten
gouereg
govern
komedie
francaise
##szenter
considereiert
dellen
jah
##head
##sbank
statu
mondial
vernun
hypok
pseudonym
iwwerrannt
sprache
##http
melbourne
loos
verstitt
scenar
annexe
domicile
##wiertlech
4ten
zyn
##ti
bleif
##pluss
verleierer
schwaachen
bloebierg
birendall
continu
soguer
mountainbike
##fleesch
##orteren
groussmamm
daran
altor
pere
##schenko
riis
fernsee
promill
creos
##produkter
nammlechter
nostalgie
primaire
tiir
direktor
onsenn
##ontrollen
mana
meeschterwierk
brongeschhaff
witzer
georgien
dickweiler
dickeschbur
##dafrik
tient
##iffer
zero
patients
manifesteiert
lalleng
##schain
zea
rac
prabbel
ausseruerd
albanien
kappball
akkreteiert
rezente
##kritiker
iermsdref
##hoch
##bele
##will
##otoen
##lechem
commemor
##skontroll
hohen
##plaatzen
volvo
berufs
infektiouns
atmosphere
amenageiert
kommando
responsables
eileng
ajax
kranzkuch
##zich
anfang
1922
duuscht
dieu
fuerchtbar
gestiermt
gespons
meeschteren
arbechten
dossiers
begruewen
cheffen
implant
eifel
brosiushaff
henkel
##keng
opwuel
##prozent
jhemp
allerbescht
patrull
urlaub
banker
veronique
ricciardo
geographie
firdrun
unzegoen
autour
dara¼ber
biographie
##stross
maschinen
##meiglechkeeten
hypoth
omineis
discover
gelegenheet
chrestnech
beantweren
nogeholl
mey
gekreint
messstann
paraiser
automobiliste
shakes
##berechtegt
annahm
enzel
laquelle
##haffer
##efon
ahnleche
limiteieren
preiser
bollendreffer
delles
hospitaliseiert
saxo
vergreisserungs
ck
nan
##messer
vuma
##sstrooss
##brannt
publiques
zereckgezunn
frieme
falk
matthias
newton
sne
udo
dafa¼r
villfalt
##liner
deierbich
chambers
schwieregen
##felder
quantit
##rege
##skop
mediat
erneierbar
fatzeg
virowend
nai
ugehalen
rouscht
konschtwierker
##evue
landesplanung
cornelysmillen
kipp
##irer
##onesch
##ellence
##verdacht
reiz
##eldall
internationalem
brucherhaff
diplomatie
uers
onw
1910
wiehler
short
##vertried
fiktioun
danzer
gadget
magazine
voire
vullen
electro
plusglecherweis
jetz
rommes
##endie
abor
##kommt
liibl
studioalbum
peitruss
plakater
sabot
lannerm
bezweifelen
oda
r2
deele
bierengerbierg
##egewasser
cutde
buchen
keespelt
showmaster
mysteri
dreibuchauteur
bcee
weltrekord
1300
acce
bouquet
##sequipe
aarmuts
bungereffer
hawaii
massend
allemol
##krater
comedy
##strech
bonjour
zesummekomm
renteiert
apprecieieren
geigestand
tabellespetzt
mend
##helleg
##ukt
##arie
##wensch
papagei
eechternoach
##eierend
heichen
1931
doming
verschm
##sstil
##mais
herge
motors
epes
buedzemmer
gegeben
attention
secherheetsrot
leopold
televisiounsapparat
##undai
jupp
sr
chol
##ulent
deport
hiwwel
behapt
principal
ventil
##premier
benedikt
guedber
solution
ved
##steg
##alent
vird
abegraff
jaunes
knipp
##anders
favoritten
entertainment
celtic
fukushima
##jend
##tenen
##eindeg
eviter
reihen
##reser
##ologe
unterschied
##held
##staren
massiven
elter
depense
sket
aiskal
reformeieren
zirkuleiert
maximalt
swing
eimereng
##sprasident
informatiounsvers
veut
palestinens
maastricht
##ml
finan
##koppel
365
##dienst
gaming
innovation
thermal
tos
mathuelen
sagt
pleim
##ka¼
iwerholl
beschriwwe
schness
##fuerscher
blaat
performant
ausleisen
freckeisen
maarnech
##ssport
mats
noden
wouhier
verstarkt
tower
heemel
##sprinzip
inneminista¨re
strukturell
bichermaart
##nobelprais
sum
##umes
##schwa
amnes
lieux
rouges
biog
##idaermoossen
##commun
relieisen
griewer
puncto
##zecht
##abilite
##leeder
palma
##ceptioun
vernoleiss
deisermillen
vergreisserungsglas
kalen
msf
ulee
##comp
##urop
freiwelleg
heecht
kalkes
verdachtegen
deplaceiert
waassert
nammlechte
schauble
huldang
begladderen
gart
vl
##asien
verschaerft
kommenden
niewes
relatif
##frage
behaapte
moossname
petrolspraisser
closbierg
orchestra
portmonni
haler
##pech
geschengt
##auft
metrage
ofschleissen
participer
deemoleger
bestategen
viraussetzung
synthet
velospisten
entertainer
feminin
eppelduerf
merde
lead
##elsmillen
zousatzlechen
##bieren
airbus
bestemmter
italieenesche
giewel
dschihad
cels
##beim
weissen
supr
##ifie
ofschafe
gebass
chineseschen
kippen
##urte
virmettes
##ekon
124
antikl
mandela
cinq
wourops
geziilt
lifest
##estand
laser
##ieso
gebesch
avanceiert
##brunnen
meechten
versuergung
berlinale
feschmaart
houl
yell
##aal
##ßt
opgeb
zeut
##etto
desorganisatioun
iwwerdenken
##isseuren
baker
155
deierecht
staatsbierger
eelst
beweise
quarantaine
##hansa
mmm
##kenscht
##barer
vehicules
##ubishi
annahmestelle
ninten
xia
##riichtung
##efolleg
molin
gebradd
##mesure
empire
illusioun
booter
emeringer
bronz
closdellt
autopsie
##fiert
##eran
##eleit
huile
##onds
blick
perf
uran
fondament
greifen
dertescht
hurrikan
keck
tief
zora
##ellaf
planze
glaawen
dierbech
compris
bonspill
folkl
melange
responsabilite
##biischt
##scheierhaff
zitroun
derlaanscht
seen
##waschen
kleedung
koschter
steierverwaltung
ballade
educateuren
drecks
kanadesch
remboursement
jidwereen
nive
pouv
##zert
erfir
waffer
letzte
abruecht
streeen
irm
urbe
eigentleche
representants
schierm
excellente
orthographie
letzbuerger
##dikter
infol
konsult
maschinne
hiirer
hartmann
haassel
entspaant
weltgesondheetsorganisatioun
dianjen
emgew
deewelt
apprent
##ooo
energies
bettendorf
accessoiren
favoriten
gratulatioun
##schaos
kasemat
inkompetenz
skur
##a¼t
liewenslang
autoriseiert
##richtungen
eierlechkeet
cycliste
doudesstrof
##streik
##fonction
##nidder
sper
chief
apost
gleichen
greiwels
agebonne
musikalesche
hepperdang
dudder
lgs
##eppes
siam
undreiwen
##rafic
mensbech
gillander
##odo
##inho
opgesat
chose
souweisou
##bereeden
chreschtleche
bouch
jugendleche
klimak
motorsport
gerechtfaerdeg
fassade
deplac
dirigeieren
verbindungen
kremart
enttauschung
dennen
virstellt
gaul
avanc
##oppe
fock
allersmatch
constitue
clairefontaine
schema
mazedonien
emgeet
hiem
gefordert
##letzebuerger
##itanie
zecken
##urier
##lob
zweem
##kommun
organer
renee
eigentlechen
folge
alkoholiseiert
zeigt
##aarbechtung
zeechentrick
bruyneel
dw
lara
pader
gesetzest
palmar
sensibel
platini
parfum
indonesien
dennis
##ikon
least
marke
parle
notaire
ukuckt
hyundai
samsden
vergangenen
lamentabel
##mart
##sfall
##aina
sca¨ne
junger
moossnahmen
dampen
zeutzius
##temperatur
spun
onfair
##izer
today
##eierunge
##marche
representant
buerermillen
everything
konservativen
wayne
democratie
dipla´me
kz
oe
##uder
##oneiert
##ffelen
##low
##ices
opgedeckt
bordell
navette
ursprung
##iska
haw
##ochette
staang
18h30
versteisst
heichwaasser
epeng
legendare
lipp
zeppel
dirbecht
spillsaachen
##klappt
charm
unten
hannerleisst
akademie
dumong
fraisproch
cie
einn
ghost
zom
##usek
esoubal
through
schweiert
gedopt
ministeriel
entschelleg
afeiere
koalitiounsaccord
peiters
onzefriddenheet
computeren
bottas
konstateieren
##utze
##otheik
instanze
chreschtbeem
spetznumm
branden
jesu
gordon
g20
##schreiwen
ausp
ausried
duerchsicht
perquis
melanch
donna
roudenhaff
pyren
gy
soug
##osa
gedreemt
productions
tests
diversiteit
szenen
katastrophe
lufthansa
bestiechung
##encer
##usten
168
144
monder
eventuelle
beleifte
annerhallef
agn
##gement
##ded
duernom
kenneleieren
##chereng
nidderw
##wesen
##nappt
##lechkeete
obschons
gazast
dinosaurier
vettern
##slos
##ripp
chois
bedierf
naturmusee
funktionneieren
ofgesi
incre
sportlerin
legendaren
##interview
virdrunn
suspendeiert
wiggins
immediat
ahl
nsa
ergeb
arsch
elz
bieren
148
summerprogramm
zoom
eidele
joubert
##waassers
seien
zl
anlagen
##egn
euch
prunk
faªte
gelee
staatlecher
premierministesch
groaen
return
broad
verbrenn
hennescht
perfekten
ieweschten
lobbyisten
eimeschbaach
mohammed
toni
##selen
beteil
##azin
demandes
##const
##vitesse
lg
ritu
##gewerkschaft
1913
##queem
hiirem
besonneschen
nintendo
##dee
sinna
##igte
gestres
manque
erliewe
provider
afrikanesche
##ulpteur
corpor
shakespe
5min
arist
adler
naturverwaltung
##handball
egalite
wuertwiertlech
occitanie
himmelsk
##filter
kompetenze
jedes
salvador
sister
schinne
scheinst
obligatioun
pauschal
1fax
ascht
hif
hott
##lon
##funk
##engungen
185
1890
zentrale
capabel
cruz
vigueur
eimisch
california
geologesch
maa
##anti
bris
##zegkeet
correspond
auguste
##kompl
pleimling
##laden
##redo
sinne
joergang
arme
gelonge
aurait
##embere
liewenser
apps
garten
##grenzen
hervor
schweizer
assisteieren
infizeierter
huelmes
rechne
descher
seieren
##schecken
##onnier
##aufen
gestrei
regierungsprogramm
133
ambiti
orientatioun
mercredi
prezis
sklaven
tete
vont
auszesetzen
villchen
obeler
iwerflesseg
##brenge
renoveieren
innenminister
traffik
kierzlech
illegalen
utopia
olai
bander
jeem
mul
wans
##1000
gaichel
heel
teles
mounts
spunnes
##zeger
cars
vollkomme
bora
##kranz
agenten
cambridge
tombola
befennt
acteure
carnol
fetschenhaff
##egst
##verainer
poivre
juve
usus
##sych
optauchen
##eidungen
begruewe
verloosse
eeselbuer
jene
##ssetzung
abc
mutfert
##igesat
mitsubishi
nutz
##prot
noh
lief
museldall
##phia
drecke
devise
mobiliseiert
zesummeged
zirkuszelt
##geschafter
##pfl
##cange
##eiter
techniken
preventioun
physique
iwwerwaachungs
zesummebannen
exekutiv
##meschter
blu
wievill
prototyp
dudderhaff
meer
##fection
pean
commerc
ustiechen
ba¼rgermeister
verweigert
420
aig
##dauchen
geliewt
perquisitioun
promi
holzem
alarmeiert
commerciale
eegestannegkeet
meurthe
elsass
lignes
##henn
daers
schummer
##ierdesch
kleed
##arbeiten
##freed
hannerf
schutzt
keiner
matschwatzen
fidel
tz
##echend
ami
##urer
##fakt
drauwen
haltestell
semi
honneur
fuussekaul
subsid
suessemer
energet
aurelien
oasis
gelen
nenn
##deet
spillraum
##digen
##deelegung
langsten
border
pompjee
confirmeieren
feschbecher
eimischbaach
##arium
##alarm
geograph
sputt
absen
medias
##sperio
rhetor
trends
veranstaltung
##amill
french
klisch
zreckzefeieren
importance
jedem
mercury
elegant
ausenanersetzung
deiwe
##ando
weinegen
groae
allerlee
hitch
verbrennen
ubitt
##ransport
cooperatioun
entschiedegung
bub
rengen
##aming
parel
musees
menschenverstand
apdikter
##hiop
digitaliseierung
munnerefer
litteraire
titanic
romm
##ention
waal
chaine
direndall
pruecht
plaque
126
##ofbau
heaven
fenneng
geschwester
fonktionneieren
blatter
krankekees
loss
meschten
##bm
##estellen
##ilda
seuil
geschichtsb
auditioun
bloc
housch
steinmeier
revenuen
australesche
ofgeleent
ausgebild
sozio
suicide
aserbaidschan
##web
bevir
geduercht
tai
wiederkonditiounen
oppositiouns
snj
kiki
##elton
samstag
munitioun
steps
couleur
fuite
krimineller
gereegelt
opgehal
folkendeng
jeimer
ww
aless
##ussioun
arte
videoer
animeiert
mediateur
briefing
wafferou
thing
paischtcroisiere
donwen
klopp
useldeng
fcb
saints
animation
classement
deklaratioun
kierzeren
square
onverstandlech
miedernach
dd
##oben
virhuelen
kriddel
nahm
haaptrollen
britten
before
##geschichte
ruf
##fb
##ebau
ono
goethe
lamberty
emprunt
cockpit
lifestyle
##heiert
##bour
##inert
stoot
##rico
gringen
geimpft
##zeechnen
deliber
valentin
duebele
snc
gt3
580
gondel
##zele
##rob
interpell
schlechtem
##uschten
verschwonn
confirmatioun
pneu
prouwen
neiinfektiounen
zod
##witt
##emal
##estatioun
blanch
##maan
verbriecher
festungs
tast
ennerstellen
##frascht
kraizen
rietse
onbekannter
schlagz
spigelt
cssf
pesc
##fesch
##stee
denge
##lake
##andre
##moyenne
ahnlechen
iwwerzeegend
flunkernews
gedeckt
erb
fridde
##berge
chreschtdeeg
privatsphar
##irkungen
timo
dch
ebay
judd
linne
wull
##wale
##schule
letzt
schapp
britney
semaines
presumeiert
cedric
diz
##ogue
##abelt
##flikt
244
ennerschreift
automobile
germany
hechstwahrscheinlech
bewais
encourag
flunkernewsblock
keith
yo
##bain
conges
entstaanen
okologesch
dikteiert
cra¨che
##familljen
cumul
##list
amateurs
bevor
millebaach
137
##feu
investisseur
ausweiten
ophale
zanndokter
geigestann
##hilfe
together
kreich
dece
erfinder
geluet
##okal
##klart
sendungen
springsteen
channel
bden
##ridde
chateau
regimm
strofe
##anager
linken
administrateur
riedner
reimesche
prozedure
##iteren
##rachen
allmeiglech
aluedung
gefro
##aben
nemm
fuerwen
jeu
gedimmer
tranche
iwwerzeege
iesswueren
tibet
tall
##hungs
spiere
##spir
weiderfueren
132
##staate
sozialdialog
##scomite
##wessenschaften
aisterraich
##ty
verr
liewer
blood
##waertung
hitten
honds
infraktioun
spannender
frankfurter
[...]
